5B
30
30
21
32
0E
15
07
08
2B
E9
33
FF
0B
15
C2
B8
CC
FC
0C
17
DC
DC
CB
D5
B7
C3
1C
23
18
C0
C1
CB
04
E2
DA
54
44
43
D8
00
E5
E7
EA
10
F5
E8
F2
04
37
19
29
1C
14
03
0E
C5
2B
38
18
F8
F7
18
FE
FF
FA
F4
D6
09
E6
F1
FC
EC
DC
D7
DE
0B
08
F2
B2
CA
02
0E
11
34
33
3B
C3
19
01
D7
35
E8
03
0B
2F
F6
F8
17
16
08
34
01
11
35
F6
35
40
B4
AA
BF
02
D0
2E
2B
0D
FD
B0
B2
BF
F0
E6
F1
0C
F7
FB
4D
34
22
B1
CD
96
E5
E5
E8
14
21
32
F4
DD
E7
F9
1C
14
D9
CE
DE
FD
F2
F0
3C
42
20
0B
06
F3
25
2E
56
C6
BE
CC
D9
DA
DB
FB
15
3C
26
1B
FC
12
E4
07
18
F4
2B
D9
EF
07
01
F5
DB
DD
13
0E
E4
FE
C1
09
15
05
15
16
1B
F9
EE
0E
10
1D
24
5E
5E
4E
48
25
10
F8
00
EC
FD
C7
C6
06
D1
EA
C0
EF
FA
EE
B7
AC
DE
F0
F7
22
11
0F
E0
F7
D7
02
F5
06
F6
06
E0
EF
E3
CF
C8
E1
F0
53
5C
50
0D
F6
0C
25
25
1F
DE
E5
ED
D2
2D
2A
2A
CF
EE
E8
DE
E5
08
04
12
D7
AF
D1
1A
FE
F2
1C
DF
04
F1
FD
04
D9
17
FE
C5
F2
EA
2E
33
1E
50
62
60
32
3F
37
AD
D9
D3
A3
CB
CC
2E
52
E4
31
05
27
1F
2C
20
CA
BC
E0
BF
F0
13
E7
D1
E8
0A
19
21
C4
C7
DC
2A
44
3B
1E
17
29
BB
C7
BE
20
E1
DA
33
1D
F8
F8
D9
E5
29
2B
24
19
EF
03
F4
F4
21
14
2C
39
33
2E
15
2C
1D
14
3A
42
24
DC
F0
DE
BB
CE
DC
09
F8
C1
19
2D
2C
0E
02
F5
06
EB
2B
01
F4
DF
54
4A
2C
1A
24
04
FF
F2
0C
F8
22
32
04
19
0E
C9
BF
C7
F7
EF
0C
F5
F0
F6
EF
C0
DB
0F
1A
0F
DD
C1
DB
FC
CD
DB
50
2E
25
F3
EE
15
DF
F3
07
FE
05
D6
1C
30
1F
26
18
1B
12
D8
BF
20
30
15
F6
FC
E8
F0
06
CD
F4
CD
FD
D9
0F
06
DD
E1
CF
FE
CE
CE
D6
BF
D3
03
04
19
1C
34
4A
0F
0E
CE
07
FB
0F
16
30
32
E9
0D
12
06
18
28
FD
41
2B
15
31
11
9D
AB
C3
EA
E3
16
39
00
15
BB
B7
CB
C4
F4
F2
FF
26
F4
41
42
16
C2
B5
AC
E7
EE
E6
18
2F
34
E4
0F
0D
ED
16
FB
C1
D5
F0
0E
0A
FD
42
45
18
17
04
05
41
29
34
CD
C1
CF
E4
E4
CC
12
E5
29
07
C9
E1
0F
13
F8
22
01
0E
E0
E3
0E
09
EB
EC
0B
DA
15
DF
DA
EA
1D
11
06
0A
17
2C
CD
D5
EC
07
26
2B
4A
54
39
3B
29
14
EB
FB
DA
E6
12
DC
0A
07
DA
C4
E3
E1
F8
C3
CB
E3
DF
0B
25
1C
EE
F8
FA
EC
12
FD
08
E9
E5
3C
FE
CE
05
C2
E1
E3
4B
50
34
F6
ED
18
1D
33
00
DD
F2
F2
14
FA
DD
EE
13
F2
DE
DE
FB
DD
13
0F
DD
C9
CA
1E
F8
ED
10
01
CD
F3
0E
22
22
D5
D1
D1
E2
E5
26
0E
02
48
66
45
2E
36
38
9D
AE
B4
B2
CE
DA
2E
19
39
37
1F
27
21
1A
2E
B7
B6
EF
CB
DB
F3
D9
E5
F7
05
FC
32
C2
B9
C8
2D
2A
32
F5
49
4B
C8
C1
DC
2F
E7
BB
28
1A
0D
F0
E6
F9
45
2D
25
07
F3
00
02
F0
2E
11
3A
49
2A
1C
26
3B
0D
0B
2C
44
F0
BC
2F
0C
A4
CE
E4
FC
DA
CD
17
3B
26
13
23
01
F3
F3
E3
1B
0B
F6
21
18
F4
20
08
19
04
11
D2
0F
01
14
24
38
2D
FE
CD
02
DD
D2
DF
FF
CF
FF
FF
BC
BF
1F
2B
2C
E8
C7
B0
E6
F7
CE
38
14
15
01
FC
06
D9
D9
10
E6
D3
E4
E7
F7
FA
3D
1F
23
04
DC
E4
E8
FD
00
CA
F0
E1
00
AE
CC
EA
FE
05
1B
E2
1F
FC
E6
D8
01
ED
EC
C7
D0
D8
28
17
2C
0F
2C
3B
1F
1D
02
F7
BF
1F
3B
EF
12
1B
15
19
31
0E
16
FE
43
36
18
06
3C
A8
CE
C4
06
F2
04
EC
15
CE
F1
F7
03
D4
27
39
00
F5
C4
38
11
1F
E2
E1
BF
F8
03
05
2D
48
26
25
18
C8
16
2E
0C
C5
BC
E2
E9
E7
ED
31
12
F8
D2
D4
E6
12
26
41
C5
AB
A3
04
D7
D6
CF
2D
DD
EF
1F
E7
34
25
C3
2B
DF
FE
D5
F7
00
EC
D8
DF
24
04
0C
07
F0
D9
EE
D8
F1
0F
27
09
E7
1F
DD
2D
32
2D
33
40
4B
2D
19
21
D2
C5
FF
09
0C
1B
DF
FB
BB
EE
DF
E7
E2
CF
F3
E7
06
23
FB
08
02
DC
EB
09
CC
EF
0F
B7
EC
D7
F6
AD
E6
F2
E8
D9
17
2A
35
F7
E4
FB
26
2D
3C
D1
DE
E0
16
E6
02
1B
14
CC
AC
B4
D8
E8
D7
08
AB
AE
B2
45
2D
03
EB
0C
37
44
5D
4D
E4
C5
F0
F8
1F
17
FA
15
44
27
64
46
3E
39
37
CA
F7
EE
D1
F0
F7
1E
1D
36
0B
21
20
0C
F1
0F
D1
CC
E1
A4
D9
D0
E6
D1
E3
0C
2E
41
AF
B2
BD
1C
12
30
F0
F7
09
F7
DF
E1
22
D8
00
23
2A
30
FC
E0
FC
41
30
1B
1F
33
27
33
34
2B
1E
EF
FB
13
F9
F9
22
02
EC
E3
E8
F5
E0
EF
FA
C8
C7
BE
EB
E8
CE
2B
47
61
11
05
F5
E5
D6
DE
0E
DF
C7
B4
CC
A3
EA
E7
ED
FB
E6
07
C8
DA
A0
33
15
0F
4B
24
19
FA
FB
11
3C
22
D9
48
0F
2A
BB
C3
A7
29
1F
50
3A
38
66
CD
DF
E8
0D
14
28
F2
F4
EE
E3
F5
FD
B4
E7
08
EC
E5
D2
15
1D
FE
E4
E7
E4
0C
0D
F5
DD
F4
0E
F9
12
05
17
0B
D1
1C
35
D5
28
40
E4
2E
1D
14
DC
F2
05
E6
B9
BF
06
0A
2B
DD
FB
DD
2A
A6
C6
EB
D7
DE
CA
F1
DE
1E
18
D0
F5
34
F9
29
22
64
2B
2E
1D
EC
C1
E5
44
63
64
1D
DD
DD
9D
06
ED
D9
C3
F9
21
26
33
0E
0E
40
E1
E4
D9
11
08
2C
2E
41
20
1B
34
4D
21
08
D5
FA
FD
D1
0C
FC
04
FB
F5
CE
22
1B
2F
51
3C
52
0F
FE
30
11
E5
EA
D5
FB
F0
04
DC
F1
F7
21
F8
15
21
1D
36
F4
01
42
21
DF
1B
02
F9
CF
AF
E8
E4
DE
C8
F1
FC
E0
BD
97
D4
EA
B8
EC
29
22
0E
0C
21
14
22
1E
24
07
E1
D7
44
12
31
FD
00
08
25
0B
27
00
28
1C
E1
F6
DC
0C
D4
E5
33
11
ED
16
2F
33
AC
DF
C4
FC
E3
FD
D4
06
E6
36
1C
19
E4
CF
00
F6
DC
32
EF
D2
FB
0B
01
00
EB
E8
19
F7
FF
1A
06
1C
15
06
F3
02
C9
15
F4
19
00
22
E8
D8
D4
D3
D6
EB
C1
C4
BD
1A
E1
09
72
63
4C
E4
18
1A
B7
D7
D4
00
11
0D
40
46
35
43
FE
1B
33
38
02
12
0C
0F
2F
34
2D
AA
B2
A6
E2
E5
DA
0D
1F
32
C1
F3
1F
E6
CD
F8
2E
12
09
E2
C8
01
D3
06
F0
FA
D5
D1
E7
D1
19
E3
D6
D2
20
23
17
D0
CD
00
21
4A
0F
E8
F2
1D
04
04
FB
B9
D5
0C
E6
E5
E3
02
00
44
00
27
46
32
61
43
07
1F
14
04
42
FB
32
1C
16
CD
D0
E2
E8
C6
C2
13
46
4D
CE
FF
AC
D5
ED
CF
24
35
1F
E5
D0
E3
EA
E0
EA
18
F2
01
E5
F0
D5
00
FF
DD
2A
33
15
14
1D
06
F1
08
08
17
D0
E2
00
31
05
4E
36
0D
D5
07
07
CC
AA
C5
11
EB
E5
F8
D0
D2
C8
CA
C7
0F
19
0E
DA
DB
FC
39
09
28
11
CF
06
ED
EC
EA
1F
28
FE
EA
FB
FC
38
F2
F5
DB
D5
3D
F1
0A
F2
C1
DC
CE
D9
E8
14
3D
3D
06
CB
B9
CE
14
DB
D3
1E
0C
28
0F
FF
06
D0
D7
C0
CA
D0
EC
E9
D8
25
36
19
2F
C0
FD
D7
DD
0F
EF
2B
46
36
2C
37
30
FC
F5
C2
E3
2A
34
D1
E7
D9
C2
C6
F9
C0
0F
1A
19
1E
FC
CC
0C
02
FD
F9
33
0C
19
26
01
0E
E9
28
26
E7
02
E5
CC
F6
1D
38
26
2E
28
E4
CE
13
E8
FB
14
42
18
48
09
26
25
FB
0B
FA
CE
CD
E7
F0
F5
EB
CF
E4
00
09
0A
FD
F1
36
FB
13
17
3C
E9
F8
FE
14
E3
0A
1F
DD
E9
39
06
F0
F0
DD
E5
47
7F
35
28
F4
DD
43
48
3A
13
21
1A
DB
0A
E0
1B
0A
E8
20
0A
01
F3
25
05
0C
27
02
1B
F3
C8
EA
1E
1B
A1
D7
FE
E4
41
3F
80
9A
B7
14
F4
36
2E
26
3F
37
34
22
EC
AA
D4
CD
B2
F2
3D
1C
DF
35
3B
48
2A
3B
2E
E6
1F
E9
F7
31
F2
EE
FB
05
D6
CA
07
D9
D3
D3
26
2D
05
16
39
40
D8
CE
B7
E9
FE
D5
0D
15
F2
32
F3
E4
1E
19
21
E5
D1
D0
0D
D9
FD
28
2C
31
24
32
1A
D2
15
D8
EF
30
D6
D4
F2
3B
08
24
15
0F
1D
BC
0F
DC
E3
0A
2B
F6
CB
20
1C
FB
EE
03
09
25
11
0A
02
EF
03
BE
DF
ED
F7
06
D9
EC
DB
DE
E4
D5
EC
FA
33
E5
08
DB
FA
E9
12
F7
01
29
F4
DE
E6
FE
16
08
F9
FA
E5
1A
F2
EE
E2
CD
E2
15
27
1A
33
33
D3
F5
06
FB
EB
D8
DF
1A
FA
1F
39
FF
22
FB
E4
B2
CD
AE
B1
F8
F2
2D
00
FF
EA
EE
EE
EE
14
03
0E
AD
AC
DA
00
F7
0D
E2
E1
D2
C2
E9
FA
13
1C
FA
09
20
2E
01
F1
06
0C
DB
11
E4
0E
FC
C2
C3
E2
E8
B4
F0
2D
10
26
DA
DF
F5
05
D5
FE
EC
EE
CC
E3
CF
E1
00
F9
E6
1B
07
0B
DF
C9
E1
29
29
1E
BE
C2
CB
0D
25
11
31
13
FA
ED
FF
F6
4A
0B
D3
F6
F2
E0
0F
1D
21
0A
0D
0E
1E
0C
0F
EE
F1
F7
D6
2A
02
27
F6
26
0D
14
00
11
19
01
E6
C3
0F
F8
1F
C4
B1
D9
DE
33
27
34
D7
F1
D8
09
10
1E
F9
FD
2C
EA
F3
ED
CF
F1
D0
0F
00
DD
EF
E3
11
08
07
1C
E3
E9
E8
F2
FD
06
09
F9
E4
3D
17
48
05
D1
D7
3B
F0
2C
19
12
18
E7
F2
F8
02
09
E4
ED
DD
F9
45
35
E3
15
1F
22
EC
ED
F1
0F
19
D5
19
0A
24
CC
D3
E5
3A
23
47
F9
0B
D9
CA
1A
1C
BF
D1
EE
F4
09
FC
D1
D7
EA
EC
F7
E4
0D
02
1B
07
0C
23
D0
E8
FC
DD
E5
EF
E8
EC
0F
43
31
1A
33
21
19
D6
D7
BD
FB
06
04
1D
2A
26
C8
FA
00
EE
FB
0F
32
32
26
04
02
FF
02
1B
06
F4
0B
CF
08
27
23
15
27
03
1E
21
16
E4
F7
F9
FC
E1
08
31
16
03
F3
14
06
AE
BA
C5
C8
13
F9
E9
1E
DE
EC
FA
05
F6
0D
42
FD
D4
ED
28
01
2E
F8
ED
D0
0F
3F
2E
64
42
32
1A
25
20
20
46
3F
06
31
1F
C0
DF
EE
C3
BE
E3
3C
41
2E
DB
D0
D8
CC
B5
C8
26
27
2B
B6
C4
04
0B
DA
AA
57
29
3A
B5
E9
FF
1D
00
3A
FE
1B
E0
FC
DC
07
00
05
13
F2
22
E1
03
4A
30
22
F7
09
DF
19
C4
22
F1
22
F5
D3
DE
EB
C3
E0
14
EF
13
F3
F0
F4
2F
31
21
4A
37
25
0F
E9
DC
E6
F3
EB
FC
46
22
E9
F2
F8
18
F2
20
FA
D4
1C
E2
F4
D8
E6
D0
BB
E5
DC
37
45
2C
4A
D5
E9
CE
1E
38
1E
2F
FF
21
3D
2A
44
92
BC
80
B3
D8
CA
FE
1E
20
ED
E2
0F
E8
F9
DB
D1
EC
DE
FF
FC
51
37
4A
32
E2
F7
03
3D
FA
46
EF
DE
E5
BE
B7
A8
F1
1D
32
03
30
0B
EC
DD
01
23
E5
19
25
17
10
EF
FF
E2
12
FC
EA
F7
FA
E1
F2
40
31
00
FE
36
07
ED
09
F2
F6
27
57
52
22
3E
0C
36
2B
1C
0F
CF
F0
06
04
E1
08
B6
F8
E4
EF
C7
E7
F5
2D
55
E3
30
1B
F1
BA
D4
1A
FB
3C
2C
27
F0
C8
29
E0
E6
06
DC
76
5D
50
2C
1D
29
19
4B
42
02
F5
F5
0D
C2
CE
1D
D6
F9
28
19
30
3E
08
20
F2
EF
ED
0B
0F
DE
03
11
07
E9
E6
E8
D2
1A
16
B5
FB
D0
40
43
2B
4B
52
32
49
1D
30
D1
C0
C0
AA
C2
AE
19
33
E0
24
FC
24
16
1F
29
F7
DC
1B
E8
CA
F9
E8
F2
D1
02
FD
24
C9
D7
B9
01
FB
1F
0C
0C
F1
DB
BA
CC
21
25
0B
E7
12
E9
02
0A
F8
09
2E
16
08
10
F9
0F
F2
F7
0D
01
28
37
36
30
FC
0C
32
04
EC
12
EA
FA
DC
E7
F3
BD
F6
F3
DB
F3
09
10
FB
F6
1B
DC
FC
E6
D0
C7
CD
FC
0F
E1
05
FF
FF
AC
D6
C1
18
14
E8
38
0A
28
0F
1F
3F
C7
B5
DD
F1
2A
E8
15
F3
10
1A
14
FF
D9
C0
E5
E8
24
21
C8
D1
CD
18
EA
FF
E0
CE
E9
08
10
F6
36
1A
10
ED
00
FE
0E
DD
D8
F1
07
EE
05
D8
09
D8
C7
E3
D3
07
B9
04
0D
43
19
2E
23
F8
23
09
DA
ED
FC
AE
B3
0B
CD
E6
F4
14
FB
B8
29
E4
CD
06
D5
EF
44
34
23
13
16
CD
30
28
1D
F1
CF
ED
E0
DF
F9
EB
B1
E3
E4
BF
FF
08
1D
0B
C4
1B
0B
8F
AB
D6
BC
B4
C0
14
0F
12
2E
2E
4E
EA
EE
E1
02
27
E2
DC
0A
D6
2B
F8
1A
1C
FE
09
DA
EA
FA
E6
06
E3
E0
DA
CC
1E
22
3B
06
31
3F
24
1E
35
00
C2
D0
F9
0D
F5
D7
D3
C4
FF
07
B7
06
0E
05
DC
0B
DF
EF
23
0E
E7
DC
C6
3C
1F
18
EF
E1
CC
3A
2D
16
D4
D1
F0
F3
F8
D6
B9
C3
CC
F8
DD
00
03
01
0F
0F
EB
16
EF
00
DE
0E
16
16
05
F1
F6
48
1B
27
CD
C8
DC
1F
24
01
F8
26
0C
C9
FF
00
E4
D0
E9
EF
C5
D9
29
12
ED
1A
10
2F
2A
3A
F0
29
F0
04
00
00
03
C2
D2
DD
35
31
55
03
EF
0C
06
00
2B
09
14
FF
0A
F3
D1
33
0E
3D
FA
EE
EA
F5
0F
2E
03
F1
F6
FD
F2
1C
2C
0D
19
BE
D6
12
34
2C
2B
F2
11
F5
DF
E6
D5
05
01
FD
28
2E
02
17
0A
1F
0D
F3
09
18
16
07
B5
BA
B7
57
51
39
0E
D3
E3
38
49
23
FF
25
F2
25
2F
1F
14
19
13
1B
F4
FE
41
F6
B7
D4
CA
D6
DA
DF
DE
D8
FC
DC
EC
12
DE
04
B9
FE
0C
F6
34
1B
1D
05
EE
E7
31
E9
C2
FC
FA
2A
06
F0
E3
D2
24
EE
08
E9
E1
BA
D9
0A
D7
17
F7
FD
FE
1C
1C
EC
0D
FE
0D
DF
F4
EC
FE
05
2C
2E
19
D2
E1
D4
FB
17
02
D9
C8
EF
E7
02
EC
00
E1
EE
18
17
2F
34
F1
F0
F7
10
F2
DA
D1
E5
F1
0C
F9
1F
23
23
F6
F3
CB
C9
C4
AD
33
1B
2B
25
0D
23
0D
24
F4
00
08
04
B8
AF
B8
ED
CC
D6
E8
F1
DC
DB
0F
12
BC
F3
FA
42
2D
2C
20
07
DE
FC
E9
DA
DC
E2
D3
EA
F8
FC
EE
C5
D4
FE
1D
D3
F6
0E
F3
18
34
CE
A3
D7
E3
BB
C2
B4
31
04
41
15
20
30
FD
BC
D7
0D
17
30
F3
F1
B8
35
32
23
F2
0F
38
C4
D0
E8
21
0A
D9
F4
EE
CA
22
21
35
F8
28
28
DF
EE
15
07
E6
FD
0E
2F
04
DA
E0
CD
F4
F5
D2
13
03
12
F9
E2
20
E5
F1
2D
C2
B7
C9
30
2F
2F
B7
E6
02
14
0B
1E
D7
CD
CF
D1
F1
DF
D3
CC
B7
0D
04
1D
BD
E6
1D
2B
2B
4A
F7
ED
D3
F0
0C
02
EA
02
F6
25
25
47
E9
CC
C4
2E
2E
D3
25
FC
1C
F3
E1
05
F7
DF
F0
D0
F5
E8
0F
22
0C
1B
3B
48
16
E7
0E
D9
CC
3D
CF
1D
29
DC
CE
E5
36
50
5F
FA
DA
D1
2B
0E
08
E6
D8
EF
0E
E0
E8
11
F7
FB
E3
01
0F
01
FB
04
03
F7
03
DA
E8
11
22
F5
0F
C6
20
E6
3F
3A
18
FD
03
F7
D6
01
E3
F9
EB
30
2A
28
15
FA
E0
E0
21
FF
18
24
27
0F
DE
CC
B9
4F
38
37
DE
D5
02
3F
32
23
15
26
0D
28
18
0A
06
09
EB
09
FF
07
22
25
A8
E6
DB
F2
C1
B9
CA
EF
C1
F7
F0
E4
08
06
DA
1A
DD
0A
09
08
EF
EC
EE
F2
02
27
D9
D1
FC
13
21
01
30
38
0B
04
F1
17
33
5C
33
2D
02
CC
CC
CD
EA
E5
FC
48
49
2F
F9
C6
C6
A0
F3
D9
18
17
07
E5
D5
E1
EB
0D
E1
EC
3C
1C
D1
F2
08
29
4C
32
FA
37
09
C5
E3
FE
FD
F5
E9
F0
11
22
2C
37
2B
15
18
10
03
03
26
FC
38
21
CC
F5
D7
06
29
EB
23
05
01
17
FA
23
28
40
1A
18
23
0A
1D
13
FE
E0
26
03
24
14
F7
DC
BD
D0
10
F3
CE
09
E2
C7
17
FC
F6
9A
D2
DD
3F
1F
12
E8
31
0C
DD
EF
E5
F4
2A
EF
1E
02
3E
44
3A
0D
D5
DF
DD
CB
B6
B0
F2
05
05
EE
F1
40
00
F1
04
06
21
27
33
EF
4A
3C
32
2B
E8
FC
F2
F6
0B
0E
0F
FC
F4
C9
D6
C7
F1
C1
D9
11
1E
45
D1
E8
3A
06
FF
33
18
50
26
EA
ED
F7
2B
0F
3C
0E
D9
C9
2A
19
4C
00
F4
19
04
E2
1F
D3
BD
EB
31
30
0A
09
08
03
33
1C
10
12
D6
DE
23
EE
03
F6
F0
DA
F2
1C
E3
0D
F8
3F
F6
13
45
FF
D6
D9
12
3B
2C
DE
FB
E4
2A
F6
34
0E
FB
03
45
56
26
11
27
3D
25
2D
E8
1A
33
1A
F1
B4
15
2D
0D
F7
0E
3D
23
54
43
17
EB
FF
E9
EA
0E
EC
CF
29
C5
D2
E6
F1
52
2A
3B
A0
B6
CD
EE
2B
0C
15
EF
FB
20
1D
FE
0D
DD
F5
E4
06
BB
1B
18
E9
DB
E5
ED
40
FD
23
0F
22
28
EC
09
F6
F6
E8
DC
FA
FF
19
F6
00
DF
22
FB
F8
2D
16
ED
B8
DD
01
E9
DF
17
E1
D2
FE
0F
0C
0E
D1
EC
FF
27
10
FA
DA
DC
10
F6
03
DC
46
44
0D
25
0E
17
F4
D5
FA
F7
DD
13
40
3B
28
D3
0C
EE
D1
C0
DB
C5
FC
F3
18
18
37
DD
C5
BF
B7
A8
B8
FB
E8
E4
15
FB
07
C8
B4
AB
0B
F9
EF
36
17
10
0B
23
30
20
18
F1
08
FA
0C
F0
EC
D4
30
26
12
20
12
4D
DC
CD
D9
10
E7
E9
37
35
1A
EE
FC
09
A7
DE
D0
E2
E9
E9
D9
E9
09
F7
1F
FF
12
18
1C
F3
FB
16
E5
FB
1B
F2
CB
DE
3F
1A
1F
42
32
0B
2A
1A
20
F6
F8
F7
CB
C6
CD
10
11
35
09
27
23
1E
FC
DD
F7
F7
D4
F0
F7
F9
DD
FC
F9
EC
F6
05
FF
0C
04
4C
1A
3F
D6
F1
BB
1E
22
1E
F4
D5
DD
AD
ED
12
FB
ED
E3
35
3F
42
16
05
09
F3
B8
D9
E6
0E
0F
26
41
1B
17
0C
46
1C
FB
0A
D3
DD
D7
ED
ED
E6
F6
D3
D1
18
1B
49
29
19
1A
E2
07
10
2D
26
30
EB
E3
FA
16
33
19
F3
21
11
FF
08
06
35
F7
25
37
DE
34
06
0B
10
EF
D5
E3
D1
D7
D8
CC
EB
D3
CC
D0
E3
17
C9
CD
21
31
02
EB
21
F5
F0
08
FF
39
39
24
3A
2E
2A
0D
1B
C8
33
51
23
09
08
24
19
34
20
13
E4
13
1B
25
EF
3D
2B
39
BC
EC
FB
07
15
01
0C
ED
E8
59
41
3E
CA
BD
DA
ED
14
05
19
ED
F7
F5
D3
F8
14
FC
FA
F7
15
14
C2
CC
FB
F2
F5
1D
23
D2
13
E1
D4
E7
CC
F6
C4
BC
BF
CF
CD
BD
C6
E0
05
FC
50
54
2E
15
E5
25
EB
D0
E6
05
19
16
32
68
46
11
0C
F1
00
1E
13
FF
1D
F8
2D
35
13
BE
C4
B0
D9
EE
E8
1E
24
26
07
0F
2D
FC
FF
F7
38
2D
2D
DF
C5
A9
17
21
1D
FE
D9
CD
D1
C6
CA
EC
E4
CD
D5
F9
1B
00
37
E8
42
2E
29
EB
0F
1E
14
0E
02
C4
C3
F8
C8
CF
C0
F5
1D
07
F6
09
1C
3C
41
31
20
05
04
ED
F2
E6
0F
3B
08
14
13
0D
C0
D5
CE
E6
E3
0B
F4
EA
DE
E8
BE
CE
1D
21
1A
C3
D8
C4
EB
C2
D4
23
1A
1B
04
20
0B
C5
EC
12
DA
F1
E4
10
24
18
38
19
10
0C
E4
B1
F2
0A
18
11
F8
03
E8
F0
D7
DD
CD
E2
05
36
0D
F4
D9
CD
0F
D8
D5
E1
D5
B5
FD
E8
0A
3F
3B
3B
18
DA
30
FB
04
11
31
10
52
07
0D
34
23
3E
4C
04
33
0B
04
32
3C
AB
97
A8
E7
ED
1F
1E
0D
FD
C4
D8
CB
32
1D
20
F6
2B
F7
13
24
0E
C3
CF
AF
EA
EB
F5
16
0C
21
00
FA
D4
F1
FF
EA
C9
D9
E0
16
E8
29
41
2C
24
FE
10
EE
11
11
2C
D8
B5
C9
F4
DD
E6
21
C2
E2
DC
C4
C7
1D
10
1B
F7
EE
CD
EA
E9
F4
0D
F3
EA
E1
19
D5
D9
27
EA
F2
FD
26
16
24
1E
EC
FC
D4
18
30
25
40
51
50
42
1A
45
D8
D6
E7
B5
D0
BE
E6
FE
FF
EF
DD
FA
12
C1
D9
D3
3B
27
0D
F7
1B
E2
F5
FF
E7
04
15
15
16
13
0D
E2
CD
CB
DE
D9
5A
4A
51
FD
F4
07
44
28
14
D8
E9
F1
D9
2F
0E
12
22
05
EE
E4
01
E5
F0
EE
DD
BD
EC
1F
05
ED
E4
F4
D7
F5
09
12
DC
E8
23
A8
EB
04
16
14
1A
4B
56
68
2F
4B
3F
9D
C1
CB
BE
BB
D4
05
19
06
31
21
3A
08
1B
21
BA
B8
C1
C5
BA
F8
D9
E2
10
F0
1E
11
B7
B0
C1
1D
56
46
23
3E
33
F7
D4
DC
EF
F7
BD
46
18
16
F3
ED
EB
4C
3B
24
02
FE
12
13
FC
1C
0A
39
21
29
0B
07
F9
15
EC
14
2E
2F
14
EF
DF
AF
C7
B3
0F
DF
DC
19
2A
17
2C
2A
F0
F6
CF
D6
10
F5
E0
E6
F9
D7
D7
E6
EA
08
F6
29
BD
E0
C8
E9
DB
D1
04
FA
F0
2F
46
45
FD
F3
03
DC
F0
FA
F0
01
DD
02
F6
1F
24
12
06
D8
C0
F2
EA
D9
FA
1B
49
1D
15
05
2D
D8
EC
D4
C9
DF
D7
14
36
17
2A
25
FE
31
41
23
D1
D4
FF
EE
F6
FB
E3
E2
DD
2D
23
1D
26
09
E9
2F
26
0A
F5
F5
11
F2
E8
F2
13
02
06
05
EB
02
14
D4
A6
DE
C6
BC
16
0D
C3
D7
F3
F8
FC
04
FC
E8
DD
D4
3F
36
26
23
F2
DE
0B
16
13
F9
E3
06
D8
FC
33
FD
E5
F2
4A
41
09
E3
D7
D8
D5
DC
E1
E6
FB
25
17
1F
0F
10
2E
5B
33
33
09
E5
E6
11
F6
F3
D6
CF
B3
FF
1C
2A
34
11
F6
D9
E6
10
E4
2D
12
43
ED
12
EB
F8
16
1A
11
58
12
08
01
0E
25
0E
ED
18
DC
D4
2F
30
3F
07
DE
F6
D1
F1
F3
CC
D6
CC
E1
F9
E6
05
E4
D9
3D
1E
0B
DC
EB
40
0F
E5
14
29
33
3E
1A
F1
29
D7
04
E3
04
57
2B
0D
19
0D
04
23
F2
EC
02
06
35
23
34
26
32
24
FB
FC
EF
1D
02
08
EF
1C
0B
61
63
50
0A
F2
F3
DE
D0
39
0F
F2
38
23
19
F8
11
E9
E9
D9
E3
08
25
FD
00
DE
D1
E7
34
41
0E
B8
BA
EF
E1
0E
0B
D4
D3
CF
D7
D0
DA
01
FD
1F
4E
21
F3
00
2F
10
F8
DC
E9
0F
18
23
12
2C
25
0E
27
07
03
06
10
ED
D4
04
11
1F
11
F7
EB
D2
E2
02
F4
08
02
0E
16
FE
E0
F0
ED
DC
48
39
32
B1
B9
D8
F2
0A
E9
D4
08
CF
FC
15
F5
F6
F8
EB
E4
FD
06
EA
19
C9
17
E8
05
29
3A
35
2F
40
F5
AF
C0
CC
C4
D8
F3
32
1F
31
E8
FE
F2
2B
33
3F
36
16
16
FD
EA
FC
D9
34
4A
E6
F1
E5
C4
DA
E0
06
0F
1B
F2
D2
D6
BD
C2
CE
2D
30
55
E9
C1
CC
08
F2
EF
38
F2
D3
E5
FB
E5
EB
DA
FA
13
0A
2F
28
25
E4
2A
23
14
D9
D7
DF
0A
26
3D
4C
3E
32
E9
BD
B1
C0
AD
AB
24
F2
3C
11
09
DA
F5
00
DA
EC
EB
DC
BF
AA
E0
0E
17
06
0B
CE
E8
06
E0
07
EC
2A
1C
10
1C
33
0D
F1
06
33
EC
F7
E7
E6
04
C1
A2
AD
D5
A9
F7
36
26
FB
B8
C8
E0
E7
D3
DA
F7
ED
EA
05
D9
FA
E7
F0
F0
14
F8
08
FE
F0
05
04
F2
FC
C0
DE
EE
DD
F1
FF
2A
2E
3A
00
04
F6
19
0E
D1
25
21
27
FE
F1
F6
F4
CC
D2
F0
EE
21
1E
E3
0B
F7
1F
2C
FC
D5
E1
DC
EC
F5
09
F8
F9
DC
1D
BF
D6
11
17
CD
D7
F4
2E
32
3C
E4
C9
FF
0C
2A
22
4F
2F
3E
44
27
0B
FE
D7
ED
C4
DF
F6
DD
E3
E9
02
11
36
BA
EC
A4
CF
1B
20
F4
F3
05
F0
0C
21
E8
1C
01
0A
19
D5
28
DC
E5
E3
DD
EE
4F
56
3D
F7
0B
02
64
32
10
15
1C
1D
F1
32
D8
23
E3
09
F4
FC
11
CA
D2
EB
22
14
13
11
E9
D3
DC
DC
17
BB
F9
07
36
F2
F4
9B
A7
BE
12
37
05
31
4B
35
30
34
3D
AE
BD
E0
C4
B3
E0
F3
FF
16
61
4A
25
29
18
01
BC
D7
B3
DB
DF
E0
F0
FA
1E
E1
F2
01
AD
BC
CA
47
65
2F
FE
0F
09
EE
F3
F3
FB
0D
F9
31
38
38
E3
1D
DC
0A
26
1F
ED
E3
EB
F8
10
04
27
F3
DD
0A
2F
14
CA
B9
CA
05
C9
28
2A
C5
DA
0F
DE
D9
FA
EE
28
05
F4
03
00
F2
F4
05
1C
E7
06
F9
E3
AE
DC
CC
DC
D8
D8
18
F2
1D
D6
E0
ED
FE
FE
FC
0C
FB
02
19
20
44
16
34
E2
FB
18
0A
D5
B8
C7
0B
3B
38
2B
43
3C
E9
F5
01
1B
DF
02
21
36
3A
0B
0C
F0
C4
FA
F6
D7
DE
D8
1A
F0
FA
24
FC
0F
02
0D
FB
C8
BD
1B
41
4E
21
F2
D8
F6
1F
0B
13
40
0F
15
3F
19
36
21
19
1D
E8
D1
D0
1E
3D
34
E3
FF
1A
34
F8
B9
DD
C9
BA
EC
FC
CD
B8
1C
23
13
1F
11
EB
12
F8
69
45
1F
0F
DB
E9
27
2A
13
18
D1
2D
ED
F5
ED
0D
05
07
11
15
07
E2
D8
D1
D5
E5
EA
25
05
34
0A
32
F6
32
F7
34
15
23
FB
00
19
FD
0A
08
1A
FE
E8
D1
16
31
2E
08
10
FB
03
EC
DA
1A
2E
07
E3
E0
F8
F2
33
0C
21
21
12
15
0A
2A
EE
3A
E6
CC
2D
06
40
05
2C
C0
B6
D7
EC
EF
ED
C3
D8
D1
EC
D7
EC
18
F3
E0
4D
3D
26
3E
25
2E
0E
2B
26
E8
E9
D5
0C
38
07
CE
23
04
46
19
1E
03
16
DA
17
22
1B
D1
C6
EB
0D
FB
09
31
4F
3C
D9
F9
F5
2B
1A
2C
14
FF
08
28
18
14
CF
C0
D4
04
EA
D8
10
EC
21
09
16
06
EC
F6
CD
F4
FD
0F
DD
FC
CA
E9
F2
FF
DE
EE
BA
F1
EA
C0
DB
EC
F3
C9
B8
CF
E0
AB
C5
EB
0A
24
46
4E
29
F5
1C
FB
D5
E5
D2
25
17
31
0E
51
4C
04
0E
02
1B
08
12
F6
12
18
11
20
0E
D1
C1
AF
0B
10
1B
F2
17
17
ED
FF
39
E6
B0
CF
45
3A
16
B8
AD
BD
05
0D
F6
DF
F5
DF
FF
E0
01
ED
09
F7
18
F7
35
10
C3
1B
42
10
3B
2D
EF
0E
3E
08
E6
AA
A7
CF
C7
D6
CA
34
04
3D
04
13
18
CA
C5
C2
D9
E9
E8
F2
EF
14
EF
BD
F5
1A
4C
2C
2C
30
2F
E7
F8
E4
2E
24
23
44
2E
23
B5
C1
AD
2B
4F
21
58
4F
5D
CD
E7
EF
3E
2C
34
11
EB
F9
EF
D5
FA
C2
D8
E2
E5
DA
DA
2C
FA
1C
EF
11
D3
EE
CF
D3
CB
F8
0A
42
54
33
E0
C8
0C
55
24
FA
34
03
F5
0E
0D
16
EE
1E
10
D1
BE
CA
11
0D
2B
ED
3B
0A
10
1A
F3
C4
D4
C0
A3
BF
BE
CE
F8
01
1B
0A
FE
1C
27
3F
13
2F
F0
C4
B9
F5
3D
3E
3E
BC
0D
16
C6
C8
0F
D9
E3
F0
2A
1D
02
04
F5
12
F4
EF
E5
15
E5
F8
17
17
20
EF
20
27
21
EE
F0
FD
16
07
28
02
0F
ED
08
D4
13
17
15
2C
3D
43
47
3B
12
ED
0F
D3
ED
F9
CB
F8
0B
25
02
24
10
1F
21
19
03
0D
1E
14
F0
C3
14
1D
22
9F
B5
E3
26
E3
F6
E4
F2
02
E8
DB
FF
EE
CB
CD
26
21
13
11
39
FC
1C
11
0B
F3
C2
CB
15
40
0F
DE
FF
E4
10
20
1D
0A
0A
16
FD
EC
E2
C9
D7
CE
25
10
22
30
34
19
D5
E9
B5
1C
DF
F6
D5
F3
D5
F1
DB
F5
E0
24
0E
20
09
2E
12
FF
F1
FF
23
15
F1
E4
F6
16
FF
2B
F6
F8
3F
26
0C
1F
F9
BA
1B
D6
FB
49
03
F4
C5
D5
C3
03
D2
D7
B7
0E
1E
FD
4B
47
30
F9
20
F0
B0
DA
D0
1A
21
09
38
48
56
1C
0E
40
1D
28
FB
1D
2B
2F
17
31
1C
BD
B3
B5
12
02
1F
F8
21
1B
17
10
18
D9
CD
EE
12
07
12
F4
DB
E5
E1
F2
F9
DD
E6
E6
03
EF
F1
CC
E3
E0
25
45
3F
3C
0C
FA
2D
D0
2F
E9
D2
0B
12
04
C0
D6
D6
19
ED
E8
EC
36
1F
EC
10
3F
2F
38
31
31
27
43
22
61
44
50
3D
3D
FF
DE
F6
DF
0A
F7
DD
33
31
20
D4
D9
C9
B6
B6
DF
27
31
2A
B8
D8
E1
1F
FC
D1
30
41
26
E7
04
02
2E
33
3D
03
33
02
CF
DB
D7
1E
1D
10
29
F7
0C
45
0F
37
0E
0C
0F
11
29
32
3E
2F
38
C7
15
D5
02
C4
08
FA
31
24
EA
0A
ED
4C
58
39
13
22
1B
04
03
0B
1D
E7
E8
04
40
30
DE
EC
E7
CB
E6
E3
E7
E0
FA
00
F3
0C
B1
DA
E5
19
4B
2F
EC
17
26
BD
B7
A8
2D
EB
F0
FC
2B
44
5C
5D
38
A8
C3
C9
DB
E3
C0
0F
40
22
1A
F0
E5
FE
02
D5
02
E5
DA
26
FF
3C
23
23
34
E3
C4
EF
1B
12
28
FC
DA
F5
C1
D3
A4
05
13
0E
48
0A
58
C9
0C
1A
EE
EA
23
F5
07
07
E3
DC
D6
17
00
DD
21
B3
EA
3B
4F
2E
06
FD
20
F2
DD
1F
D7
E7
07
46
4D
25
18
0E
26
35
25
15
F2
D6
BF
06
F4
06
CE
EA
DB
FD
CB
F0
C6
2D
38
1D
17
20
D0
DD
D2
37
35
4A
02
D2
F2
F7
E6
B6
DF
F8
F1
3B
69
56
11
24
56
1E
29
4C
23
01
16
14
F4
F1
05
29
CF
08
47
27
3E
52
0A
CC
E5
DD
FA
E9
EF
CA
FA
C0
DA
E9
EE
00
33
50
CB
DE
0F
53
39
31
52
42
14
23
12
08
DF
0F
C1
CD
E1
C9
FE
FD
36
F6
06
0B
1E
03
1D
FA
1C
2A
D0
15
EE
C5
BD
C2
04
2A
38
E1
D5
D1
03
F6
04
44
1A
DF
B9
DF
D3
08
F4
11
FA
0A
EA
D4
DF
E9
0E
05
F8
48
20
29
F2
DF
FD
E0
DD
1D
17
2E
13
1A
0E
2C
22
03
0E
15
05
0E
CC
D5
FE
F0
E2
DC
D8
F9
0C
C3
F9
E7
13
37
FE
C5
B6
B1
D5
A1
91
1E
04
2C
0B
09
ED
EB
CE
DA
1D
29
23
1D
23
61
F9
E5
EC
E8
E9
05
02
E7
C1
27
3C
27
E2
F6
EB
17
1C
02
F5
C9
DA
FC
12
FD
09
FB
F0
F3
ED
CC
E0
DE
D9
16
26
23
C2
E5
02
F7
0F
EE
E9
04
13
5C
08
F4
D5
07
1A
2E
18
F6
16
2C
EA
17
2E
52
07
D0
FB
DD
DE
06
EB
B7
B7
E6
FF
EA
FD
2E
1C
BF
BE
FD
42
27
18
01
F2
1B
2B
07
15
F3
DC
C5
39
43
25
DB
D5
12
D3
DC
E5
0E
05
FC
F9
04
30
BC
D4
E2
E8
D6
F9
30
33
28
4B
4D
4D
06
07
2B
E1
03
E2
3D
04
2A
38
17
F8
FF
43
10
BD
DC
CE
B0
B0
C0
22
EF
20
05
1B
19
08
F5
2B
B6
0C
13
F8
15
1A
3E
1F
C7
C2
E6
F2
BE
F3
EF
EB
F8
F1
E0
0A
02
2C
22
2F
D5
B8
E2
16
0E
2A
CB
1B
C3
26
13
2A
EF
09
0A
ED
F9
E9
DA
E5
EE
07
0C
0A
32
0B
DB
08
3E
32
F3
13
1D
01
FF
E5
C6
F5
04
1B
FA
19
05
FD
EE
02
F6
D5
CC
C9
CC
09
2B
05
E9
17
03
DE
CF
DE
03
17
D8
1D
F4
2E
2D
FF
34
EE
0E
D1
F1
F2
08
F8
D9
D9
27
12
14
FF
1E
1C
02
04
2C
46
4A
3D
D0
B1
D4
FE
03
3A
14
02
E3
EF
F3
FC
23
E5
01
16
EF
06
3C
27
28
0B
27
1C
12
F5
2C
CA
D8
F4
29
11
11
19
FD
EB
EC
04
DB
EF
06
26
F1
E8
FE
D3
CB
DF
D5
D8
CB
3C
48
32
EF
CB
E3
4E
17
1C
FD
E5
0A
14
FB
F6
24
3D
26
DC
06
F8
DA
0B
E8
CB
B7
CF
D2
FB
F9
C4
FB
DA
31
09
1A
1A
EE
01
E8
B3
F9
18
10
16
FB
C7
F3
30
C7
E5
FC
DB
E6
F5
F8
EB
FC
00
EA
D8
F6
E6
24
D7
1B
2D
3F
69
FD
09
05
D7
CE
B3
15
ED
22
FD
F4
EF
10
FE
00
02
F8
E3
06
F0
07
1E
16
15
39
2C
29
E8
E6
D6
C5
C7
C3
09
22
FC
33
1E
17
12
F4
BE
CC
E7
EB
C6
C8
D0
CA
A9
E8
19
22
E6
13
DA
11
E3
FB
D9
36
E1
F4
E6
C6
D8
32
26
3D
14
EF
23
10
E6
DF
15
36
F1
25
F7
52
10
06
17
00
2C
5B
19
38
DD
13
31
38
AE
C0
BD
0B
0A
05
F3
07
FB
18
E9
03
CB
24
DC
E4
E8
99
28
0B
24
EB
CE
C6
0D
28
2D
2C
40
39
FE
DF
2D
13
3C
1E
F6
CE
F4
F0
F4
B1
3B
27
1D
F2
F7
14
0D
19
21
C6
D7
D2
FC
F2
01
12
2B
03
BA
F5
D6
24
11
F5
02
EB
E0
E2
FE
E3
04
F1
DA
CF
0E
2D
08
0C
D4
EA
F0
E5
F1
0E
01
34
D8
08
3B
22
39
29
30
22
14
22
20
EB
CB
C9
1C
16
F8
09
1A
02
E1
D4
B6
0C
EC
11
08
FC
DF
FC
E5
03
F9
E0
0E
E4
E4
F4
E5
15
0E
F9
DA
F3
E9
E8
0A
F1
F8
09
EE
D9
D3
14
F9
F9
B5
C0
BD
01
32
07
F6
FE
26
B8
C8
C0
F5
FD
D1
CE
CA
B5
40
3D
22
EB
29
2C
5F
68
55
CB
D7
00
15
15
15
F5
EF
0A
0F
2A
2F
13
27
1A
CE
11
E6
F5
15
12
20
1E
DA
E2
07
2A
DC
F1
FB
D9
D2
F0
E1
BA
16
D8
E9
09
21
10
4B
D8
BC
C5
E5
29
1A
D5
01
2D
E9
E5
CE
FA
D3
16
1E
16
3B
E6
EC
DB
43
1B
25
07
1E
1E
47
22
26
FA
2F
2B
FC
DD
F0
4E
17
06
CF
EE
F8
1D
DB
D1
DF
D4
DD
C6
04
BD
30
4F
5B
30
12
F8
D3
07
E8
1C
18
07
FA
B7
9C
09
01
0E
B8
CB
DD
C9
10
D6
32
26
33
25
09
2D
DC
D2
D6
06
1B
13
29
F4
D3
25
35
02
E1
BE
DC
EC
FF
FF
BE
C4
E1
0E
ED
14
DE
F6
F8
E9
00
C7
07
01
F4
11
0E
10
0F
E9
CB
FE
0D
E5
01
F0
F6
23
E7
D8
CB
F7
0C
29
25
0A
1A
28
F5
09
00
4D
F4
E4
E1
D1
B2
11
D6
D8
BC
F0
0F
1E
F6
3A
E9
DF
DA
DB
4E
38
3A
28
24
02
F7
CF
F8
E9
D4
F1
08
0A
1B
DA
D4
DA
C9
AD
CF
26
07
09
DD
2F
21
AE
A0
B5
CA
B3
C6
1E
24
2B
51
3B
6A
F6
F8
09
21
C4
E3
11
EF
19
4F
0E
22
D7
40
10
D1
C1
ED
B4
FE
BD
3B
FD
E8
17
0B
5F
0B
1B
43
FD
05
04
02
EA
02
4C
FD
C9
F8
FA
A8
E0
F9
C5
01
0F
FC
DC
0E
1A
05
36
19
EB
BE
C0
38
1A
19
F1
E8
DE
2F
4A
10
D3
DD
F1
FB
0F
13
D0
C1
CC
EC
EF
36
D2
21
04
06
FF
36
08
DD
DD
0B
22
FE
EF
E4
E4
1B
22
29
9F
D6
D4
0A
FC
EE
EF
EA
25
F3
04
14
E9
E5
DE
CE
E2
EE
E5
15
00
0D
F2
2B
20
04
2B
F8
30
C6
F2
F6
F9
E4
F3
D1
3F
11
3E
03
FF
10
1B
23
42
26
1C
3C
CC
F5
C5
32
1B
36
E7
06
DD
F2
F2
EA
0A
F8
FE
EA
0B
19
18
33
30
EB
13
D7
32
26
43
EE
EA
0B
D7
FE
E1
05
ED
0F
23
14
0B
EA
0B
0F
E9
05
E2
14
1C
04
C8
C2
BA
44
62
32
E8
13
F3
52
44
25
EB
19
21
11
1A
17
16
20
03
03
FA
1C
59
09
0B
CF
BB
E3
E8
D6
BB
09
24
12
E1
05
19
09
D9
D3
01
CB
DA
29
24
08
FD
E3
F6
DD
C3
AF
1A
0B
0B
FD
12
1E
E2
D2
DA
EC
11
0F
EC
F9
20
F7
08
F2
D8
00
0A
06
14
FD
54
11
3B
1F
2A
2C
94
CD
D8
31
35
F0
4C
2E
39
BE
EE
D6
0D
E2
D5
DD
C3
DA
0E
18
FE
00
39
27
AA
9A
B6
10
06
F2
FA
FC
D1
ED
DF
AB
91
03
FF
3B
1F
E7
13
D0
13
09
E5
F5
02
C1
E4
00
33
4A
F1
DF
B7
F6
07
13
E5
07
1D
29
31
05
24
09
14
C9
F7
E0
F8
12
D7
D4
F3
16
38
5F
36
50
FC
23
04
17
E5
DD
33
F7
26
2B
47
D8
C5
F9
FA
E3
11
F9
D4
9B
1C
28
16
F2
DA
DE
DD
F3
BF
D6
18
27
D0
B5
D0
03
0E
26
26
F0
21
10
17
15
48
0D
65
02
DA
01
0A
13
E6
43
34
2F
FA
0F
BF
B3
F5
16
D5
07
DE
CF
2F
25
2D
26
55
41
3D
39
21
1B
28
23
36
1E
05
EE
27
CF
E9
03
2C
05
0D
CA
F8
03
C3
E2
E4
B7
DC
D1
24
28
1D
1E
21
1C
FF
FC
FB
C2
CE
D8
02
EC
0C
21
E4
D6
FB
D8
01
1A
08
0A
D9
E3
D2
12
09
1D
53
3E
31
28
28
0F
D2
C1
A0
18
F7
C9
E8
F0
0F
D6
01
E7
0F
0D
C9
C7
E3
F2
28
0B
0F
04
F1
12
E4
EA
EE
C7
C4
EB
0E
0A
2A
F0
CD
F7
EF
D8
25
05
09
11
DD
BF
EA
D5
ED
E4
D5
EB
CB
DB
1A
3B
17
3E
FA
E2
DC
FF
FE
FE
FB
1A
23
40
E3
F1
2A
43
2B
4F
21
40
23
26
00
04
2F
46
5D
01
F6
D5
39
09
1E
11
1D
F9
F3
08
20
BC
FF
0D
2A
37
06
F9
0D
E4
C5
AE
BC
DD
F2
14
EE
F5
F4
10
1A
1A
10
FC
08
2F
F0
CC
FD
D4
1B
F4
F0
43
2F
33
FB
E4
EC
E1
18
15
3F
19
0E
09
3E
5E
51
D4
E2
F0
12
12
0C
4D
33
32
14
15
0A
0A
1D
10
20
10
16
F8
0F
07
ED
E9
EF
DF
FA
C6
F8
FA
17
09
29
03
10
00
25
30
0C
23
16
40
28
18
15
1E
0A
D0
C5
C3
E5
A1
05
0C
28
D0
EC
E4
FA
FB
0C
D5
E1
C0
F3
E3
E0
5E
7F
55
EA
BC
F6
0D
DD
1B
30
28
1E
0B
FE
02
45
70
78
DC
F9
F1
0B
29
E7
CB
10
34
2D
15
25
EA
C4
D5
FA
D0
D6
E9
10
0C
29
06
21
DF
0A
09
6F
42
25
FE
C8
ED
08
05
DD
FB
33
10
E8
EC
F5
2F
2E
51
FA
0E
D9
E4
E2
FD
17
2B
12
FA
D6
23
2B
22
27
00
06
FC
36
0B
32
1B
37
3C
D3
CB
E3
DA
CD
DB
05
11
06
08
00
EA
3F
E0
10
00
23
0F
D1
ED
F2
05
1F
18
ED
02
FF
F3
E5
D4
FC
F3
10
2D
E5
2B
1E
29
14
D6
DF
FE
EC
CD
45
F3
EF
03
1A
1E
40
07
F9
F2
4A
25
1F
07
20
1E
0B
11
26
E5
E8
CB
19
F6
DA
F1
30
FB
F6
0A
43
EE
E1
C1
2D
28
23
C7
E0
D4
C4
15
E7
11
02
02
F5
1F
1A
29
33
34
02
FE
E0
F4
ED
F4
CF
FA
F2
1D
D3
D5
24
22
3B
33
40
21
D7
DC
EB
10
3C
08
CA
BD
F4
0C
1E
1C
1D
21
C7
F0
D9
08
E0
F5
0A
05
EF
09
EA
01
06
E8
0B
19
1B
15
FC
ED
2C
32
A0
D2
CC
ED
F7
F0
3A
42
59
C4
01
F1
D7
D5
FA
31
42
26
05
F4
DD
9D
B3
C0
19
FD
01
EF
D3
E5
41
FA
F9
E7
E3
15
02
18
DA
E5
BA
CB
49
58
52
D7
FB
13
C3
CD
E6
F5
0D
15
15
24
33
2C
FB
D4
2E
EC
FC
1B
31
29
1A
F7
FC
CE
E1
02
C0
E6
D4
41
3E
08
E3
D9
D7
F5
DE
F2
28
10
19
54
45
37
F5
21
1A
20
34
25
2E
FD
FB
EC
02
D2
F3
EB
EA
F3
DA
DF
ED
EB
07
E0
E8
00
F6
FC
E6
31
11
4C
FF
37
16
2B
27
F0
DC
EE
E2
CD
BD
FC
23
07
26
D5
D3
CD
16
42
EE
D5
E6
DA
FF
0D
05
7F
6D
66
0D
FE
E0
01
D0
F5
3E
0C
21
DA
E0
07
57
64
44
00
E4
19
3B
D9
0E
04
21
F5
F1
FE
07
C0
D6
DD
D8
E0
18
3A
2E
DA
18
20
42
07
E3
21
2A
43
27
E2
FE
E1
0F
DD
C7
09
F7
16
DD
09
EE
1D
2C
5F
F2
E8
D2
F7
14
04
12
23
12
D4
FA
F8
3A
41
32
F9
02
BD
2C
21
14
33
1E
2F
CF
DB
F7
FC
E4
0C
F7
0B
F6
E7
F4
DB
F9
01
2D
14
0D
12
ED
D8
CA
29
F9
1B
EB
F5
EF
DF
D5
DD
42
FD
D5
DC
E1
1A
21
F5
2A
E3
E6
E9
F2
E2
F3
FA
F8
16
1F
4F
2E
13
FB
20
30
10
11
1C
1F
06
00
0B
EC
CB
D3
C9
17
E8
05
FB
0D
30
F6
0D
E5
FF
D9
C5
2C
26
18
CD
11
D3
CA
CE
D4
0F
FE
FC
18
15
14
23
25
22
FD
02
F9
EE
E6
E8
DE
1C
1D
E7
F7
29
1B
12
D0
50
23
2A
C8
BE
B3
21
2D
1F
21
E4
05
2B
20
2C
FC
DA
F8
F9
1B
2E
20
09
02
19
13
FD
05
03
1B
D6
D9
13
16
25
F7
EF
F6
FD
BF
CE
E2
F2
E0
D9
36
3F
40
D3
04
F4
BE
B3
D6
36
3F
3A
DD
C2
F2
A5
C2
BF
38
27
FF
F2
DF
DF
31
23
05
F9
0D
E5
EF
07
E1
F6
0C
E2
2A
61
42
00
05
02
CD
09
02
FB
02
1F
41
20
62
D6
23
0E
DA
18
E9
D0
1B
E3
F9
07
EB
E3
FD
2F
CE
CB
CC
F2
3E
0D
D4
ED
E1
1E
32
2A
FF
E2
D7
14
E9
EF
FD
D9
1C
CD
C6
E4
C6
E9
EA
FA
12
2F
C5
13
C3
1D
06
05
CE
FD
16
F4
D2
E1
0C
05
11
E6
CB
02
DA
18
F5
F4
C8
C7
26
21
40
26
3F
14
D9
F9
D5
0B
FB
E0
10
FF
2B
30
04
20
E2
02
AC
E9
AF
9A
06
22
2A
06
00
F0
C6
F6
BA
0E
0F
32
BF
CF
C9
15
0C
0B
D2
1C
D7
F2
06
1F
F2
11
23
EC
0B
3C
11
EF
1B
EF
E4
E4
D9
23
29
E2
C4
07
EF
DB
05
DE
31
E9
EE
D9
03
FD
BD
2D
FC
EA
F6
F4
CA
DC
F4
04
F0
FE
F2
EF
F5
9A
C2
F9
30
EE
D0
B2
BF
31
35
29
35
01
F5
FC
FC
09
43
27
F9
F4
E0
16
15
03
09
FF
FF
28
DE
03
E5
EE
16
F7
15
01
03
07
01
32
32
36
1D
1B
21
22
0C
C3
BE
0C
0E
CE
EA
C7
D8
39
1D
1C
D9
C3
F6
F7
FD
27
E9
F7
0F
E0
07
EB
E9
1C
F1
0C
D4
1B
E8
1F
EE
00
0D
0A
F3
14
EF
EB
F7
D7
20
1B
FF
14
38
49
E7
15
C2
06
13
4B
F9
1F
20
12
F9
FE
0C
F7
C4
FE
EF
F7
25
1B
0C
04
28
0A
2C
2F
08
DA
18
29
16
39
37
EF
DB
E1
41
33
50
DE
D7
CA
02
18
D1
CA
CE
C8
1A
DB
34
C6
CF
E9
DE
F6
01
EB
F2
00
F4
24
0A
E1
0E
FC
C9
FD
E8
F8
1D
D8
2A
2A
0B
3F
3F
2E
E3
E4
D1
07
20
42
18
27
3F
EC
E9
D7
FC
16
1E
0F
30
03
F9
04
F6
08
18
1A
FE
06
C4
EF
0F
F1
39
1B
FC
FE
14
EB
D2
E7
D1
DE
0C
C8
0A
FE
01
FD
23
01
C3
CC
B9
24
12
DD
EA
F2
17
0D
1E
18
2C
3A
15
EC
C0
E6
0F
1E
10
25
C7
EF
2D
24
37
E3
DA
CA
13
EC
FC
C8
F9
BD
11
E0
FC
25
00
14
24
1E
3B
DE
F1
F5
04
18
06
F5
05
09
1E
17
F7
F1
CC
FA
DD
13
05
B8
C5
E7
ED
F9
E1
E6
CE
CF
24
0C
FE
59
E2
DF
FD
0F
ED
D9
F3
DD
11
F1
E3
04
E7
30
E4
E5
06
CE
D1
BE
3B
26
45
41
46
16
03
0B
14
F1
F8
09
C6
A9
DF
E1
D9
B3
BB
FE
DE
0E
BF
F7
E2
C9
CB
3F
40
38
F6
06
D6
12
26
DB
EF
E5
D8
E4
EF
21
E9
C6
D3
0C
EF
D3
12
10
25
CE
D7
E3
A4
B4
DD
8F
9F
AD
33
12
35
38
3A
33
E9
E3
DC
F5
4D
EC
D3
F6
C0
21
32
23
EB
02
41
C7
BD
D6
1F
18
E6
E7
F1
E8
36
3E
53
19
38
58
FE
01
04
F0
F7
C8
FE
11
23
F9
E2
B4
04
F9
AF
25
17
13
FD
F5
D8
2B
D3
3F
BE
BF
99
4C
1A
17
D1
DE
04
18
17
17
C2
AD
E5
E1
0E
D0
CB
D4
C0
10
22
33
D4
09
22
2A
0A
3A
04
ED
F9
F0
37
DB
D3
0F
E2
26
2A
5D
D6
B5
9D
43
EE
ED
30
0D
F9
F1
FE
EB
C9
CA
BB
B1
CC
DF
2C
23
05
12
1C
3D
29
32
30
FA
22
FE
E5
13
2A
BE
DE
DB
38
38
76
12
F6
D6
E4
26
44
FD
F3
F6
1D
CB
00
35
31
2B
CF
F0
CC
F5
F5
05
ED
05
EE
E3
32
EB
2E
23
18
D5
D0
0D
2D
27
47
FB
1E
06
EC
EE
D3
04
04
F0
2B
1F
1B
28
D7
02
16
E9
17
13
14
16
C1
BE
AB
4A
49
41
C5
E6
D4
44
4A
33
06
FE
0D
1A
2F
E9
0E
F6
00
E7
EA
EF
20
24
18
E7
CB
D6
E0
B0
E9
D5
DD
2B
FF
18
D0
12
DC
FC
EC
02
14
00
04
F2
01
F0
2C
FA
D1
A8
28
11
2E
EB
F2
11
DC
F1
E8
26
19
17
17
0F
D1
CF
C8
CC
F7
DF
F2
4C
4A
4D
E9
FA
F2
E2
EA
D4
F5
10
03
07
11
F5
02
FD
06
C5
FB
0A
02
D8
E9
5C
3B
42
33
42
19
DB
DC
DD
C4
DF
E7
14
2D
04
1B
34
12
1B
33
20
04
F7
0F
EF
13
02
ED
EC
00
F2
0D
1B
F1
12
FF
1D
0F
33
E9
03
E6
08
FB
03
11
1E
2B
E9
C8
32
22
E0
05
D5
E2
B4
E5
FA
D7
F7
12
DB
FB
E9
0C
D9
C7
D8
34
3F
31
EA
06
F5
08
0C
F5
EA
04
00
FC
1B
38
35
03
E8
1E
35
E8
E0
CC
B7
E0
D5
D6
21
06
0A
02
F9
FF
2F
3A
41
F1
0F
0B
F0
0E
1A
F3
E3
DF
0D
E5
F6
0D
29
14
04
EE
E3
EA
C4
CC
FF
33
30
F8
04
04
2B
19
4A
21
4F
51
FD
F6
15
1A
25
E1
C5
FC
EE
2A
47
3B
FA
F1
F3
F1
E9
00
C4
CF
D5
FA
FE
19
E4
14
E9
34
15
14
DB
0B
E0
ED
EF
11
2D
29
1F
3B
DD
F5
E8
ED
3E
2D
1A
0D
0D
13
F0
18
2D
0E
C5
D7
F9
20
33
36
2C
42
0F
EE
26
16
08
1C
20
FE
04
16
51
51
33
F9
C3
05
41
21
27
09
11
62
0D
06
06
18
03
FA
DF
EA
DE
CF
C0
03
CD
E0
DF
43
0D
E5
C4
A9
CB
DB
E7
16
F0
CD
DB
D6
FC
F8
E5
E8
12
1E
12
E5
3E
E8
3D
F1
F4
FD
1A
15
3C
18
2B
13
08
13
DF
04
F1
F6
D8
F3
04
0B
29
0C
16
FB
E9
ED
F8
F6
DE
18
2B
29
09
10
EF
CC
01
22
43
1E
9B
C2
D5
E8
E4
E7
EF
BE
09
E0
D5
20
18
1C
15
EC
EF
F7
2D
06
C3
22
F9
0E
3A
50
13
F6
20
0C
DA
A5
9C
CA
F2
FA
E6
12
3A
F7
F6
D5
FE
05
F4
E3
EA
DA
F5
EC
0A
11
CA
B8
22
07
0F
25
24
28
E9
E8
02
32
59
35
4C
42
4F
98
DB
CF
32
17
00
2D
37
54
D6
DC
A2
25
25
DB
B2
EA
C6
05
10
14
FF
42
26
C4
A6
B4
34
07
08
D3
0B
F8
EE
A5
A0
AC
FD
10
2F
22
04
25
F1
DC
19
DA
10
01
13
C6
15
4F
25
E6
F4
E3
00
15
01
0B
C8
03
DC
02
1C
41
03
FC
F2
F1
C1
EE
04
C6
F5
18
02
35
49
15
5F
12
50
14
04
CB
D0
16
D3
3E
40
62
0B
36
FF
D7
F3
00
D9
D5
AA
3F
3A
0C
FC
F8
F9
EF
C9
C4
26
25
F1
F4
E3
CD
02
1D
21
1B
27
1A
FE
02
FC
57
5C
4B
D0
02
2A
FE
FF
F3
3F
48
4F
C9
C2
FF
E6
D4
EE
DB
19
D2
E2
F0
08
3A
1A
3C
44
3D
3A
E6
12
EE
30
3C
3A
F1
02
F2
CA
DC
F1
46
29
22
CF
0A
F3
C8
B2
D9
BD
EB
BA
24
24
20
FB
13
29
DA
D6
FD
E1
B1
D6
06
05
F0
D8
F2
04
1B
D1
06
0C
2D
24
E4
E9
D1
22
1E
33
2A
FF
3E
06
23
1E
8C
B1
A7
F2
EB
FE
DB
DD
D3
DF
F3
EE
F1
F5
EA
CF
1C
D3
27
1C
08
EC
FE
E9
E4
DC
04
D8
BB
1A
FC
DA
11
F4
DF
03
09
EB
F5
0B
F9
0A
E0
C7
B9
FA
DF
FA
DD
F5
DB
2F
EB
5C
08
50
27
32
EC
2C
EF
ED
0C
07
1B
41
10
F3
EE
2F
0B
34
1C
25
30
2C
FB
19
3E
40
5E
EF
F3
EA
ED
26
FA
34
1F
2B
F1
BA
32
DD
EF
06
22
10
F4
F7
24
FB
C5
E3
E1
F0
BA
EB
33
3C
E8
F3
FF
E2
31
09
FC
0F
07
F2
32
EE
29
DC
F0
0A
15
EE
E7
ED
EE
00
0C
26
40
CB
E8
F6
47
63
55
F3
08
23
DF
F1
EC
38
48
08
20
12
22
EC
E6
CF
10
0F
0F
48
50
1F
18
FC
E2
EA
E7
EA
D9
EF
E5
03
06
07
00
08
3D
CE
E3
F8
F2
FD
DD
4B
31
41
36
2D
1E
D5
E9
EA
CD
EA
D4
25
0F
0B
01
1E
3E
07
2E
F3
DE
DC
F9
19
40
0E
01
DE
E1
1E
04
18
E8
DF
D8
24
22
1E
17
22
14
E2
03
F5
E8
2E
00
CB
20
F9
3A
0D
E6
DE
CC
AD
CB
02
08
E6
02
E0
ED
01
1D
DD
D2
C7
35
45
08
1C
EA
F1
08
1D
06
DB
12
FF
E0
1F
34
3E
04
FF
E4
FA
F3
C8
BD
B2
E8
F5
FE
2E
23
03
0D
FE
00
25
19
28
21
2A
12
15
33
27
2A
EF
FE
09
EA
E9
1C
21
15
E5
EE
C5
D0
D9
C9
1F
1F
1F
1D
06
FE
09
0C
47
18
22
57
06
0C
13
2A
0B
32
D9
F8
16
31
47
3F
D5
FD
F3
F5
EE
FE
C4
C3
D0
DA
FF
07
F3
FB
E7
1B
13
33
2C
2C
20
24
2E
F6
F9
FD
EF
17
EB
17
E1
0C
13
5E
39
FE
FF
E4
C7
07
34
06
FE
C5
CB
1C
1D
34
24
1D
0E
DF
16
FA
2A
11
1A
0E
F2
19
36
2F
30
EA
CA
EE
00
2C
39
24
03
48
34
0E
31
00
E5
E7
D6
E7
F4
DC
E0
16
C5
D9
F0
F2
05
F1
CB
AF
B3
F7
15
02
E7
E4
D6
D8
FE
E1
0C
D8
02
23
1C
F5
FE
F8
FA
CA
F8
C8
2A
02
19
FE
09
37
F4
13
F0
04
03
0F
09
EE
02
08
0B
FC
13
E5
CF
16
22
2C
EC
EE
05
21
D9
F5
CA
D4
E2
2D
19
15
C3
A3
BA
FF
14
F4
DB
E8
E2
01
FD
DF
19
0E
10
EF
F5
10
DA
D0
EA
32
24
FB
FB
07
DF
03
02
E6
C1
B1
C6
EA
DA
05
1D
FB
32
E0
FA
E0
DB
13
05
E2
D3
C6
FA
07
2B
FB
07
D0
08
FE
FF
0F
00
04
00
00
0C
24
23
F8
1D
2E
4C
9F
C9
CD
2C
2F
EE
3B
16
47
BF
D4
C1
1D
10
15
D6
CA
ED
18
FA
29
F3
2D
1C
A4
A7
9E
18
08
28
EC
D4
1E
F9
E4
BD
D2
F7
17
26
0E
E2
02
CF
D1
26
E5
FA
D2
DC
DB
25
18
37
D6
F0
E8
03
F4
FE
25
28
F2
32
D0
EF
1B
DB
16
CD
ED
C3
25
E6
E8
CD
CB
C1
20
64
35
79
0C
2B
21
0B
F6
D0
09
F4
28
42
65
BB
EB
1D
F9
05
1B
09
D0
AA
18
1F
22
FF
E0
E2
EE
F1
C8
EC
47
09
F4
F1
E1
26
0D
12
36
28
D7
08
10
F4
50
3C
4D
03
F7
F6
ED
1C
FD
52
2E
4A
EE
F9
D6
14
D4
1B
0E
F6
D4
E3
EF
35
25
48
32
42
31
39
3E
19
EC
4A
06
FC
1D
16
25
D4
DC
EC
03
0E
21
CA
E9
F6
B8
BB
E0
DE
C9
D2
0D
2D
13
FC
14
F4
C6
D2
14
C2
D5
C5
2C
2B
F2
DC
D6
16
15
F5
FA
1D
1C
09
E2
EA
D7
0B
CF
3D
52
2A
54
32
26
0A
AC
C2
A5
02
EA
FE
D1
C9
1C
08
F0
FD
0A
DD
CC
E3
E7
26
0C
03
06
01
F7
00
D2
CB
F1
DD
C6
FB
E6
CD
44
D4
EA
D7
2F
1A
05
C0
DB
20
ED
E5
C3
DE
DE
FB
D1
E0
C8
F0
34
02
0B
5F
F4
0E
26
F0
CD
EE
02
14
23
3A
FB
22
21
3F
54
0E
3A
45
22
09
03
20
29
2F
59
FE
E1
EB
25
1C
E5
FE
05
13
E1
D5
1B
D3
E4
E9
2C
13
0C
E5
F0
F1
B3
C4
D2
F1
E8
DA
38
EB
E6
02
0E
F8
49
1B
E3
F7
1D
19
30
28
FE
E8
03
17
24
03
F6
EF
D8
EE
06
15
34
D5
24
37
2E
4B
3E
C8
A2
90
04
F5
04
31
20
44
CE
D0
C4
1A
05
FF
2A
46
3F
EF
18
12
16
05
E6
0D
0C
CF
0D
F8
F3
E7
08
0D
1A
2C
33
C0
E7
D1
0B
12
F8
3A
06
10
EF
F0
E0
E3
DB
D0
E7
0E
10
DC
C9
F1
14
F5
0C
26
1A
2C
1B
F3
25
DA
02
08
01
04
FD
00
0B
11
08
32
0A
16
FC
05
03
F1
13
C6
CA
D3
E1
EC
EE
FE
1E
21
EA
D7
F5
FC
0F
F4
0F
CA
FF
D6
03
1F
ED
E6
AD
1D
34
3C
1D
04
2B
B3
EF
DE
19
04
14
12
CE
1D
D5
E4
08
E1
EA
D8
5D
50
1E
3D
4A
40
EF
E8
FD
C5
F9
F1
56
34
48
02
10
0E
FA
3F
2D
C5
C2
C2
D0
F3
CC
02
D9
01
06
22
33
28
1E
15
15
02
F0
23
0C
F6
1A
0F
DE
E6
0C
F5
B5
F4
16
EF
01
F5
03
27
09
0D
49
0D
F5
FA
C4
0B
E6
FB
FA
D6
F5
FD
05
07
D6
FA
D9
23
ED
DC
24
13
EB
06
21
E2
0B
07
04
1E
3B
3F
18
F1
F9
0C
FB
CF
1A
10
24
F0
18
0D
2F
20
09
D3
D3
07
17
F2
FC
34
24
1F
D8
E5
F8
06
F5
F8
27
0A
03
4F
26
31
0B
1E
FB
0F
EC
F7
23
FD
03
D8
FA
E1
04
EC
14
07
F9
1C
0F
EC
37
11
05
28
03
F7
3A
03
F6
28
EE
06
C1
C9
C2
E4
DB
DA
E8
E4
D0
E7
4B
38
2D
18
FE
DD
F0
E3
0A
CF
F1
DE
62
55
57
0D
D5
FB
F4
01
EE
27
02
06
3F
FC
04
AC
BD
C1
DA
D6
FE
47
3A
41
05
D4
ED
0C
08
3E
23
FC
31
FE
D4
BD
3F
1C
FF
EC
05
D5
CA
F6
D1
BB
D2
CA
DD
E4
E3
F6
02
F1
04
29
0A
16
37
04
0B
CC
1A
FD
D5
00
B0
A8
A6
45
D4
05
F5
0B
FA
CF
C7
AC
FC
F4
F2
E7
ED
EA
23
05
0B
42
4A
59
1F
25
3C
C8
CC
A5
38
41
0B
0B
22
15
F5
F8
CC
04
FC
27
12
1B
34
D8
FC
19
3B
37
22
01
FA
D2
CD
B5
D5
B8
D3
DD
F6
21
06
ED
FD
0F
CC
F3
AE
AF
BA
D2
13
E6
0C
42
30
24
E0
08
08
1A
15
F5
05
FF
1D
EC
ED
F9
F2
2D
24
D2
D8
EF
28
CA
DF
36
31
02
1C
46
DB
2D
08
0C
17
10
02
0C
2A
09
1A
F0
E9
EC
28
61
12
0C
DB
98
B2
C2
24
12
3C
C5
06
36
AB
B7
A0
ED
CF
F2
FC
20
EC
2B
29
3D
08
28
1A
DD
DD
FC
3F
4F
15
EC
0A
05
19
01
01
06
07
1F
D6
F0
DF
10
FD
13
0F
F7
1F
2E
36
19
3B
40
F1
BD
12
A5
E2
0B
B9
FC
22
DE
11
F7
D3
16
F6
FA
D0
33
30
3C
C7
23
E4
DD
CB
CB
E7
FE
EC
19
06
1B
1E
37
F1
DC
0F
0B
CA
0A
FB
F8
DA
30
40
48
15
49
FA
ED
DB
DC
18
EB
3A
16
F4
D5
F0
C7
BB
1A
15
F4
BA
E9
E4
06
E7
1B
FE
3E
27
FC
09
12
E2
D4
F5
08
DE
D8
E2
CD
AE
C9
C1
BB
27
31
3C
C8
E6
04
CD
DF
A0
00
EA
DA
E1
E0
F2
36
32
50
16
FD
F2
7F
57
48
C3
E1
11
4B
30
31
F0
E6
01
EA
F6
EF
F5
0C
EA
21
0B
0F
2E
1A
38
CC
D6
DD
C2
F5
12
F5
F5
EB
29
10
28
DE
F6
02
FC
0C
0D
1E
26
3B
E9
11
F7
BD
E1
E7
D2
FE
FE
1D
25
27
1A
D6
E2
01
26
17
E2
D5
DF
2F
13
33
04
09
0E
31
26
00
44
24
0A
BD
BE
F2
20
10
28
29
F2
32
35
2C
D9
CC
E4
E8
02
EC
D0
4D
36
2F
0B
F5
1B
02
00
C8
21
1D
24
C9
DB
CD
F2
E7
EB
39
F0
FB
0C
D6
DF
0E
10
00
2C
3B
34
13
0E
0A
32
2C
EC
0B
28
31
AD
D2
B9
38
2A
43
0A
1C
24
AA
BD
FB
F5
E9
E8
07
F8
ED
14
18
21
FF
38
14
CC
C9
BE
19
08
1F
09
D9
F2
14
0C
FF
A7
EB
E7
DA
03
E7
10
F6
E5
54
0D
0B
FC
F7
14
2C
30
2C
D7
DC
F1
F8
CD
B2
00
3C
24
F2
18
00
ED
D0
18
00
F6
EE
C7
EA
A8
1F
C0
F5
10
43
04
2B
2C
F8
13
18
FB
CA
12
EC
64
52
63
DE
2A
0E
B7
12
09
E2
C4
9E
5C
1E
52
EA
1A
1D
F4
D0
C1
F1
3D
57
E2
EE
CE
31
25
23
18
16
CF
D9
C0
D5
33
0B
36
2D
D8
DF
1D
08
25
3E
77
66
F5
CF
00
1F
30
E7
F9
D4
E2
F3
FF
3A
15
1F
0D
34
34
46
E1
2B
1E
39
EA
03
20
35
F8
C8
D4
EE
21
F5
C9
F2
F1
D2
9E
9B
06
9D
D5
C9
3E
26
1B
27
1A
2C
FA
FF
38
20
EB
0F
57
11
DF
B6
13
EA
32
1E
0B
27
0D
0B
F2
EB
A4
04
D3
E5
00
20
4A
07
37
24
AE
B5
97
C4
FF
04
01
DF
F3
12
EC
2D
F3
F2
D1
D9
25
22
09
FF
2B
C7
D0
22
05
1A
25
E4
D3
E2
DC
F4
27
D6
DA
DD
25
25
D4
F8
FB
22
B3
B8
B2
DA
E6
CC
B5
BB
A0
0C
03
F8
25
3F
45
15
E3
FD
E1
D4
DF
0D
19
42
0A
2B
31
03
1B
52
32
1C
1B
11
FB
E5
3D
4B
56
D8
D2
E8
C4
FC
05
39
1B
18
DF
AD
DF
DE
F7
FC
07
1A
12
D5
EC
B2
B7
E3
DF
E4
C7
E7
14
DF
E6
E1
EE
F2
14
16
07
EA
CA
F4
F5
1A
E2
FA
2F
05
2A
0F
FD
BE
C0
D8
EE
0F
C8
05
00
28
40
4C
6E
D0
A4
8C
01
E5
0D
22
16
10
B4
B4
D9
11
F9
F0
1E
3D
3B
26
1A
29
2B
F4
04
F8
07
EF
05
13
E8
17
0D
FE
0B
F3
33
B4
C8
DE
EC
D2
FB
2B
1A
2B
00
0D
EB
F1
E1
11
EC
04
E8
D3
EE
DF
F0
00
FE
3A
47
43
00
2D
42
C6
D0
F0
29
1B
EC
26
22
04
34
3A
29
2A
07
18
F6
C3
D3
C2
CA
C2
00
27
D7
29
1C
2E
D8
B9
06
05
0A
1A
29
15
F1
21
14
01
E5
ED
C0
1C
43
35
FE
1D
15
CF
D2
FC
27
2B
0F
10
1A
CA
D2
01
E3
DA
C1
BC
52
3D
52
25
37
21
E8
AF
D2
F5
2D
13
0C
2E
37
17
06
13
17
05
FB
A6
B4
9B
ED
04
E8
17
CD
C9
09
0F
45
1E
24
1C
D0
FD
30
0C
F5
F4
F9
E6
D2
35
EE
0B
E1
0F
0B
02
0D
08
1F
D4
12
DB
44
E0
F3
F4
E0
11
EE
E3
D8
EE
BC
DF
05
E1
C3
D0
D9
1C
CF
C2
24
FF
FC
D9
31
1A
0D
E6
F8
50
2F
5E
18
F4
02
0F
27
D6
F2
4D
1F
14
19
34
0B
06
DB
E9
0C
C7
FC
32
FD
29
1B
34
CE
E4
E0
E7
FC
06
0A
14
19
39
48
6D
E5
06
D9
F3
03
02
0C
F8
1A
D6
CE
F8
18
24
3A
EF
DA
15
01
21
FD
F7
E7
FD
1F
E0
2A
23
D7
EC
E2
E7
C7
DD
D8
DF
D8
DB
E1
ED
C8
03
65
22
31
FE
44
F4
FB
18
F3
EC
F9
00
29
4B
3F
46
08
D6
FC
FA
DC
F1
DC
07
14
4A
04
CE
D7
C2
BA
DF
DE
0F
56
1E
F7
CF
DC
2B
2E
22
33
2D
29
D4
ED
DD
1E
17
05
DC
E5
FD
FA
DF
FA
E6
E5
A8
BF
C3
C9
E4
17
E6
FD
E5
4A
33
19
4E
E1
F0
FC
D9
DF
F0
AD
A9
C6
15
C7
07
00
22
20
1C
2D
3F
09
25
FD
F2
DB
D4
07
27
2A
0D
17
0C
DA
E8
D9
D8
E8
05
DF
EA
D2
EE
D2
E7
19
1C
28
CF
C0
E3
07
DC
E1
19
14
11
E4
F4
F2
DC
E0
FE
F7
F0
0C
FC
0C
01
11
11
0F
FA
D7
D1
FE
FE
E7
17
F8
E8
C7
DA
D1
D0
BF
CB
0A
F9
09
FC
02
F1
F4
F7
D5
D7
CB
C5
C8
D7
E6
0D
0B
38
20
26
06
E7
12
D0
10
45
0F
17
24
45
10
24
2E
32
38
E1
FA
1D
31
CC
A0
C3
D3
CB
E8
25
F7
08
C9
D6
E1
F8
F8
0F
D1
DA
F1
02
EE
F3
EC
D4
E3
05
F4
14
25
FE
FC
3D
23
26
D5
F0
E0
E5
E7
E2
18
EE
20
38
23
0F
26
FF
08
00
15
41
E8
D3
D2
FC
E0
EC
06
FA
F3
DE
0F
D0
01
F2
2E
E5
1B
DA
E2
FC
ED
05
FE
F2
11
F2
1D
D9
C5
1D
DB
F1
14
1D
2E
2D
FD
19
CF
21
23
28
1E
1C
53
30
1C
34
C1
D6
B6
D9
D4
EF
DB
1A
D8
E5
EB
03
F6
E2
DC
03
D8
28
0F
16
F1
FE
0C
05
E2
FC
F6
F4
04
01
2D
17
02
DF
D3
FE
30
39
25
DF
F6
FC
56
0B
F1
EC
E7
F0
02
22
F5
D6
D3
F1
D0
D1
01
CC
CD
E0
08
EB
ED
16
F6
E7
F3
F3
E9
F1
0A
25
E4
0C
EF
EE
D5
D9
0E
30
0F
3D
48
62
28
33
23
9A
AC
EA
CF
CB
EA
D7
F0
E2
3A
27
24
19
0A
1D
BD
BE
D6
DC
D0
EE
FC
03
16
F6
0B
21
C6
C6
DA
37
59
31
FA
19
1C
FB
E7
F3
F3
DB
C7
3B
28
35
00
EB
E1
47
34
2F
00
F5
E3
EE
12
08
20
11
F0
1A
1B
18
F9
E1
DD
1E
27
2C
FD
DD
17
DB
CC
C6
1D
F7
FE
1A
22
03
28
14
0A
F4
0A
10
10
04
06
E4
E1
E3
1F
25
16
45
30
35
F2
27
1D
1C
3A
2A
1B
0C
D5
EC
E7
C9
D0
FC
F3
C8
C2
D1
02
0F
1A
D4
FE
E8
0A
E3
0E
3F
21
4C
0D
01
4F
4E
01
0F
FB
F4
C0
BF
E2
07
2D
22
1A
D3
DB
F4
15
01
19
FE
08
07
11
FB
DF
73
57
50
32
F0
EF
02
F1
FA
2F
FD
0D
D9
F0
E9
40
4A
36
F9
EF
06
DC
3E
D8
10
DE
33
23
F2
27
D1
FA
E6
F3
EE
15
14
FF
E7
1E
1B
3E
F5
DB
12
3C
66
01
DE
DD
1E
05
F3
C4
07
F8
45
EE
FE
C1
1B
30
52
01
F2
CA
F7
0E
FD
28
40
1C
C3
E1
E5
1F
45
31
EA
BB
DB
EE
27
FF
1A
21
1E
CE
CB
E2
D5
15
38
E6
ED
ED
E4
F4
D8
05
F9
FB
1D
E7
1D
00
E4
CD
EC
F3
F2
FD
F9
E6
D7
DA
D5
F3
33
1B
09
ED
21
FE
06
ED
ED
FD
00
25
E8
FD
FD
13
17
51
3B
48
34
0D
FB
00
09
13
19
04
02
15
ED
25
C6
E6
C3
D6
10
07
DB
1D
05
DC
03
E8
E6
DF
CB
2B
0A
47
D2
E2
DF
B6
CF
EE
09
FC
F3
1E
11
38
23
0D
26
1F
23
0E
E9
DF
EF
1A
18
D8
F5
D5
29
E2
04
D5
42
2F
1E
B9
BC
9C
3C
2D
14
2E
FE
F0
37
3B
2A
FE
FC
F4
E5
21
40
16
03
19
14
0E
11
21
FF
0A
FE
1A
DE
2F
17
0F
3E
32
31
B7
E3
D8
D3
B4
D8
3A
23
2F
F4
DA
EE
CB
C8
C6
34
43
44
CF
C3
C0
AC
B6
B9
26
24
F1
F5
ED
F8
17
03
F9
11
0F
0F
DC
F1
DF
0B
11
FE
39
5C
4E
06
0F
03
EC
D0
03
06
F5
16
2D
08
45
FA
D4
D7
04
E4
13
DB
DD
06
DC
ED
DD
F4
29
40
CF
DA
CC
36
21
15
E2
E7
CD
F4
FC
FE
2B
0C
02
FF
12
27
D8
E4
EC
DC
C8
C6
DB
F6
05
1A
28
30
EC
C9
B4
D1
C2
F3
4E
35
3D
E4
C5
E3
EB
F9
0A
F3
E7
DE
F8
BF
DF
26
17
FA
1D
39
28
2E
0A
E7
FC
13
00
F2
ED
E8
08
2E
46
52
60
5C
07
09
F2
C2
AE
CB
3D
34
21
04
FF
F2
03
1A
20
F3
FF
04
C4
A8
B8
ED
E0
E1
DC
16
B7
28
D8
FB
E2
08
E9
09
1B
11
12
F5
F6
01
07
F2
BF
C3
D0
E9
DF
E0
C0
CA
F2
0D
0A
20
DB
DF
E8
D4
DC
DB
E2
FC
06
DC
E1
DD
08
29
27
0D
0B
FC
DE
D0
C9
07
15
18
F1
E9
F8
17
0B
0B
34
43
22
B9
D1
E8
08
0E
F3
0E
E6
12
1A
14
25
ED
E1
D9
F1
ED
35
07
1B
31
EB
0F
09
F2
EF
F8
02
0B
04
FA
FC
08
0E
00
E5
D5
1A
0F
E6
E1
D5
34
1D
2D
BF
CD
07
F7
F1
FA
0A
04
05
03
11
0F
F7
F3
E6
FF
F0
16
C4
FE
F0
4B
42
4A
BF
C6
E4
32
EC
01
E1
00
29
11
07
37
13
14
0D
EC
D2
DC
04
16
19
08
FE
10
29
46
0A
0A
22
21
38
33
29
47
4F
50
D9
E7
02
02
18
E0
15
20
15
DF
F0
E4
37
37
32
0A
CF
D6
E0
28
2A
D8
DE
03
30
E7
E4
CD
93
B2
FE
1F
ED
04
11
F8
09
F7
0F
DD
E9
C8
F3
DA
CD
3F
2E
05
19
41
1F
0F
FD
0F
16
0B
E6
F6
02
E8
F1
01
06
F1
E4
E5
E2
EE
EA
21
2C
06
F1
D7
CA
11
18
10
12
05
E4
2A
0B
19
07
06
14
F4
F0
F5
07
F8
F7
F9
DD
EA
D0
E5
CC
EA
00
FF
AE
C0
C1
04
D2
B3
FA
EB
E5
FE
27
44
22
07
21
04
E0
EC
D7
E1
F7
FC
05
F4
DF
F4
F3
0D
FC
FE
FB
EE
0D
EB
CD
B0
19
ED
13
2A
43
42
07
13
2F
D0
C4
B0
1F
23
E1
20
EB
0B
04
0D
0F
ED
C9
E9
0A
FE
FB
FA
F6
07
31
34
18
CF
DE
E6
DB
E1
CE
FE
0B
F1
19
15
1B
2E
07
DC
F0
23
DC
CA
C8
D3
C1
CB
F6
E9
F2
F3
1E
2E
39
F2
02
F8
EE
17
D8
C0
CE
F2
EB
32
1D
F5
FB
3A
E0
DB
E9
F7
05
F2
1A
17
34
23
17
05
F6
34
46
0A
CE
DB
0D
F9
1A
BC
C6
C1
E9
DA
F9
EA
E6
16
21
0D
0E
00
EC
12
BB
D2
EC
F0
F3
EA
E7
E3
EE
1B
1F
18
2D
3C
23
FC
13
2D
0F
11
E3
14
E7
F4
F8
ED
F6
21
0D
1E
EF
06
08
15
F3
1F
E6
E7
F5
06
05
17
30
E9
2A
00
CE
FA
3C
2F
ED
D6
DF
DD
EB
15
FF
0F
F1
F5
C3
E0
E0
24
D3
D5
DF
DD
CE
03
0C
17
2B
EC
19
3F
27
24
0C
D8
2D
FC
3D
30
B8
C6
DD
04
39
38
EC
1D
E3
D1
DB
D7
0C
CB
CC
BF
0F
C8
05
E8
D2
17
15
0B
CD
D2
D7
E5
F4
1E
F0
E4
E1
E7
FA
E8
F5
E4
EA
ED
C7
C9
14
14
09
E1
E9
E8
29
DF
FB
FB
2A
C1
B2
CB
ED
01
F4
E4
DE
E7
EE
11
12
31
1F
CF
21
2A
57
3E
05
02
E1
39
2B
33
FB
F2
E6
03
24
2B
1A
2B
25
F7
13
E6
0C
04
F1
ED
03
FF
1A
28
26
EF
20
F6
B2
D7
CC
D9
C6
28
04
04
F3
1B
0B
3B
F7
D1
C4
19
42
22
D5
E6
03
2E
F1
F3
0C
19
00
24
45
2E
FD
F0
DE
5A
3B
1F
08
06
13
2E
FB
39
30
03
08
FF
CB
E6
10
D6
FB
C9
E6
01
29
17
E9
F6
C0
D1
E2
E8
FA
41
4A
32
0A
27
1D
F1
15
C4
14
14
06
CB
E1
D0
2F
1E
2F
10
FA
63
C4
FA
EC
12
07
13
0A
F8
1D
04
EA
EB
FF
C3
E1
D3
CF
A6
42
4C
3D
DD
CF
E5
DB
CA
F9
10
F1
F2
F7
FF
1C
FF
07
0D
08
E7
C7
12
F5
06
2B
35
2F
CF
ED
DC
21
17
20
10
37
03
1F
13
E1
EA
E8
24
41
31
1B
F8
FB
05
10
21
56
F7
EC
E5
16
ED
0F
E2
ED
03
F8
C0
C9
CF
10
FC
DF
D2
0A
24
29
21
31
18
EF
F9
FF
D5
09
EB
FC
E5
2C
02
CE
D1
FD
0D
00
D6
D1
CF
EE
3B
37
FB
D4
D7
D6
23
09
07
2E
33
10
2F
2B
34
34
36
19
1C
DF
CC
29
1E
2F
17
D5
CA
02
1C
0D
CA
D7
DB
92
AD
DC
2A
00
FB
FB
D8
FF
00
E6
EE
ED
FA
E2
24
33
27
FD
22
E1
D9
E7
BE
BD
D6
00
D4
E6
DE
D8
39
18
E9
1A
43
CD
CD
BB
08
08
2A
BE
DD
10
24
23
0E
21
2D
14
36
F3
09
EC
DB
F2
FE
11
DE
E0
D5
CA
2A
0D
35
E9
D7
D8
E1
02
F7
D0
DF
07
0A
E2
FF
03
08
0C
10
06
0A
8A
D0
FC
04
F8
FE
2F
2D
39
F8
08
FD
07
31
EC
33
1C
3F
FD
F7
E6
D4
D4
CC
19
D5
E7
E9
FC
E4
FD
E9
FD
06
2A
1B
DF
E0
D0
40
3E
4D
ED
05
17
07
B1
25
F7
24
06
FD
17
FD
32
01
11
2F
05
D6
0D
15
FC
FA
EB
28
DF
0C
34
D7
BF
CD
13
2D
26
E8
BF
EA
EB
F2
CC
FB
0A
3A
B5
D8
BC
DB
CD
CA
CD
AE
C5
34
1A
FB
03
2C
00
47
3F
29
D6
F8
13
25
F3
16
4B
46
29
05
19
F2
E3
CA
E5
DB
DD
EE
D5
0D
FC
F6
08
ED
EE
3D
4A
F7
EB
1F
FA
CA
11
14
18
36
E6
D3
C9
43
1D
FC
D1
BA
D7
07
34
20
E0
FB
E8
FA
2B
0D
19
1F
0C
CD
DF
E6
D3
E4
F3
3C
25
1F
3F
14
05
F4
F8
46
B6
E5
05
18
0D
02
25
2A
ED
D7
D2
05
E8
E2
07
E5
FD
E6
29
2B
37
0B
12
35
A7
B2
CF
10
29
EA
FA
00
32
1B
DD
1A
C8
18
ED
F0
EC
F3
14
13
0E
FC
B8
E0
0C
11
0C
1F
4A
42
E5
E4
E8
1B
20
FF
0B
1E
E4
C4
FE
19
F4
DD
F4
D5
C8
BC
E6
24
EA
04
07
0A
15
3F
37
4D
13
0C
39
0D
0B
30
13
2A
D5
1B
1A
D0
C3
25
0C
22
22
F9
F5
C3
01
EB
0C
CB
D4
BA
94
ED
A6
F8
FB
31
B9
B3
9A
25
43
25
FE
0D
07
15
15
36
26
05
53
13
1D
1C
17
03
EC
1B
09
0F
D4
12
D3
F8
D8
20
07
33
00
07
0D
34
45
4D
60
0E
1B
1B
0F
22
14
F5
D6
F5
0C
0B
00
00
FC
1C
02
0E
03
CE
EA
F0
BF
D3
09
D3
E1
DD
10
2C
18
2F
DE
27
FF
DF
E9
E2
02
F0
37
E5
06
33
14
D7
2D
0C
09
22
01
EA
FD
EE
E0
E2
E9
31
13
08
1A
27
31
F3
05
F7
DF
0A
F9
EF
DA
F6
F5
FC
FC
F3
39
E7
FF
F8
16
17
30
0B
0C
00
1B
13
F4
F0
1A
E1
B1
DB
16
ED
E8
BD
CA
D3
0B
31
E9
F8
01
DA
CA
CC
D2
FA
03
EE
C5
F2
F5
2A
F2
20
F0
24
F9
07
18
07
22
E7
15
3F
3D
56
F4
00
30
13
2A
1A
04
03
2A
E2
E0
02
2E
20
30
2A
12
03
03
EC
E6
FF
E6
08
0C
FF
10
D7
D9
EC
2A
1F
18
06
F1
07
9B
A5
A6
F3
EE
CB
2F
10
06
08
27
F4
1A
19
11
CD
C2
DA
DB
D5
D3
14
01
23
15
26
FC
D3
FC
B6
30
1E
25
D8
04
27
31
35
3D
D6
EB
D8
05
E1
CF
F0
DB
E1
1E
C4
E2
44
30
44
1F
23
3F
BB
BE
CA
61
63
44
3F
23
25
B4
CA
A9
36
1F
15
1C
11
46
DD
D1
CC
2C
21
ED
B2
D2
CD
E6
E2
F1
18
22
02
DE
DB
C9
3E
EF
1A
BF
D4
EB
A9
AA
AA
E7
E0
0D
44
2C
05
1D
EF
1A
FC
18
F2
13
F5
02
01
28
1D
C6
DA
02
F9
DE
D0
06
24
00
D4
EF
34
36
F0
1E
FF
FA
F1
F1
E9
CA
2A
1B
DC
21
43
EB
48
3A
5B
F9
05
DD
D4
E7
EA
5C
1C
48
BA
37
D6
A6
E6
0A
D6
BB
BE
4C
2B
10
12
08
29
03
F9
EB
E9
08
42
2C
09
E5
03
1C
21
1A
E1
FF
FB
FE
05
41
37
3D
DC
1B
1C
0D
09
0B
43
52
5E
1A
3D
F6
A1
AE
CF
CE
21
D4
E3
E3
FA
04
F8
11
46
1B
28
14
04
FA
1C
E3
D7
E6
DD
EC
BB
C6
F9
01
E5
14
0E
20
03
D1
C3
E7
CA
E7
CA
10
0D
EF
38
45
14
17
2A
F4
C1
CB
C2
22
D3
EC
FC
E7
02
C6
F5
C5
10
4E
36
BB
C7
C5
F6
CA
39
4E
25
3D
FD
FF
07
A4
C5
A8
E2
E5
D1
CB
ED
DC
D7
E4
E9
09
2B
4A
E3
10
F5
FE
26
F3
FB
0E
1B
DD
F1
17
E9
06
23
08
0F
26
25
22
0A
D0
E6
EE
34
1C
50
CA
D0
E1
F1
F9
FC
E8
08
D6
EA
21
25
02
3E
23
06
E0
2C
D3
FE
25
FC
0E
09
05
F1
1C
DF
03
56
20
20
0C
3B
2A
40
4A
2F
49
BD
E8
F3
DC
DB
F1
46
20
2C
C9
F7
EC
D0
10
2A
24
12
DE
03
39
2C
DC
E7
F1
2A
07
F5
62
46
13
E5
D8
D2
28
F7
1D
FF
0A
ED
27
2F
CA
F4
D4
ED
0C
FC
C3
FA
22
F3
11
1C
45
21
EC
EE
51
49
61
CB
F2
0E
BE
BE
D9
17
16
11
E2
04
EC
EA
F5
DC
17
1C
05
2C
4F
31
0A
2A
FB
04
EF
04
C3
D5
D9
2C
1F
21
13
27
4C
D2
E4
D3
DB
CE
09
1C
2D
25
34
08
29
CC
19
21
CD
C3
A9
16
2A
14
08
FF
08
26
1B
14
06
DA
0B
0E
14
00
1C
D8
CB
49
28
FB
05
19
C9
43
2E
39
F2
21
E2
E7
E2
DA
FD
F2
24
D0
D1
FB
05
ED
C8
C7
CC
B5
E6
D7
B7
F9
28
1A
10
23
29
E3
EB
FB
3C
35
1B
F8
EA
F4
24
2D
23
CD
CF
B9
D2
EB
1E
FE
F6
EB
25
3A
2E
CB
C9
D5
EC
DE
B7
12
3A
1C
FE
1F
E9
23
03
47
51
F9
10
09
F7
F7
09
05
1E
04
ED
D0
2A
21
12
0B
2D
22
FF
EF
26
1E
05
F1
0F
CD
FD
FD
2E
29
3B
51
14
1F
19
33
24
0F
2A
D0
2A
08
22
2E
15
D3
D3
E9
D4
EF
06
BE
DF
D4
DD
F8
F7
D4
CA
DF
3E
36
38
21
16
08
3B
1C
27
0B
F1
FE
39
E8
29
1D
24
05
41
3E
0C
0D
FF
0F
03
17
E3
F3
04
F1
FB
1C
06
43
42
2A
EE
DF
D1
02
14
02
EE
F5
10
2C
15
29
0C
E4
CD
E7
17
19
0E
2E
25
F7
09
0F
EE
D4
D9
EB
EF
02
D2
FA
02
D1
C2
F5
FE
E4
22
FC
EF
E1
D2
DC
F5
D8
D9
D4
C6
D2
BA
04
2E
1A
1D
2E
37
2E
D1
12
CB
E2
B8
3D
36
31
E4
3E
44
2E
0E
30
01
2A
0A
F3
FC
04
18
26
20
EE
08
CC
DD
08
26
01
0E
F9
FA
FA
32
C3
EB
D6
34
32
13
A7
C4
C5
D4
DB
E4
D0
E3
E3
1D
18
CC
EB
F8
01
24
13
10
31
E9
D7
3E
FA
0D
19
02
24
03
23
06
A4
9D
CD
F4
DA
CF
16
0B
E9
02
0A
1D
F3
AB
8C
17
F0
0D
F4
CE
E7
F7
C6
E8
27
23
12
08
25
3E
DA
DF
F3
F9
FA
10
13
F7
27
19
17
F1
DF
F4
F7
E8
10
00
C1
CC
D1
06
ED
FE
F0
E7
FB
E4
04
05
2C
D8
E7
FF
04
0D
FB
E0
E6
D6
F3
D6
F3
F4
1D
12
E8
F3
BE
E1
DD
24
E8
40
3E
43
0C
0C
47
4F
E5
E9
13
C9
B4
F0
E8
D3
C0
E7
01
DB
03
46
30
B9
D6
BA
48
3D
26
14
0A
BC
46
1C
40
EF
DC
B4
2F
37
15
EF
CA
E1
CB
B9
DA
23
22
14
2C
42
E1
94
CA
AB
B6
A7
AA
1D
0D
3F
5B
44
56
E0
E4
24
FA
27
30
2F
FD
0A
43
11
2C
09
08
3D
B1
BD
AB
FB
EB
C4
2E
0D
EE
20
30
59
0C
4E
58
F6
3E
16
1B
D7
D1
29
02
AB
DC
FC
00
F5
F7
E4
16
00
08
B3
25
17
FD
14
FE
EB
D5
D4
0F
10
12
AD
14
09
20
26
15
D8
C8
C5
DD
EB
D4
C7
E2
E4
14
04
3B
BF
F8
D7
14
34
60
0C
FE
31
F8
E4
02
F5
C9
CF
29
2B
3D
D3
EE
E2
1B
ED
D5
22
08
14
01
0C
14
A8
DD
F7
C7
E9
C7
FB
24
E4
24
14
32
C8
04
EF
32
19
48
F4
09
F8
C7
BB
EE
2F
4F
53
1C
FE
D1
DA
EA
12
38
01
1F
D7
B9
DF
21
33
0B
D8
16
14
D6
EE
E5
E9
D4
C8
62
10
28
2B
2F
37
EA
E6
D5
11
3A
30
F5
FB
04
08
33
10
32
E4
06
29
1F
01
EA
25
02
02
01
F4
EC
E7
CF
DF
A9
C8
53
60
26
10
C8
FA
57
2C
16
16
28
16
21
12
E7
1E
16
EF
FB
E6
02
0F
D4
B4
C4
B1
C8
C5
CD
CB
1B
D9
F4
3B
06
08
12
D2
24
D0
E9
FA
FF
E7
07
EC
E4
04
01
CA
D6
19
18
37
3B
12
0D
21
24
14
2A
0D
08
10
FE
F9
08
14
1D
E3
C3
F1
05
06
E0
F2
D6
DF
CA
B8
BC
0A
2B
1F
D7
CC
D0
F5
EB
CA
35
34
33
F5
FD
30
DC
06
0E
E7
09
D8
ED
E6
30
40
27
13
F4
F9
DA
25
3B
EE
E5
09
E9
E4
10
04
2A
0B
25
EB
DC
F8
CC
CC
F5
EB
12
03
E2
C4
CB
37
34
17
33
2C
37
EC
F3
12
D8
30
0B
30
15
3F
E3
EE
02
F3
18
3D
FE
3D
E6
F0
1A
58
BD
CD
DD
01
16
16
F4
10
F9
E4
C7
DB
DC
D8
ED
FC
09
D9
48
54
34
D4
C3
CF
E5
FF
01
2E
3E
27
1E
03
0D
31
0A
1F
D6
E4
C9
07
18
10
2B
2C
1C
D9
ED
03
2A
3D
5D
CD
C4
C2
D8
DC
C8
D4
39
DE
06
07
ED
F2
DF
EC
3C
00
1A
D1
F7
FD
E5
E1
E2
27
E7
02
EF
E3
CE
1B
08
F8
FB
07
01
FF
D2
09
1D
09
1E
62
6C
23
42
21
25
0F
FC
0B
F9
CC
C6
D1
12
E2
C8
E3
DA
F9
E5
F1
FA
E7
3B
11
07
19
D0
D9
D5
FE
18
27
BD
01
F8
CA
D5
A0
E7
EA
01
39
45
48
0B
14
28
00
2B
3A
D1
EE
E2
FF
29
08
FB
28
0A
DF
FA
C2
27
19
14
B4
B1
B2
29
0C
0E
23
E4
10
2C
28
22
27
E7
01
E5
FA
23
3A
47
22
48
55
34
36
2F
26
DA
CC
D8
D1
F6
0F
39
F4
3B
01
18
08
FC
0A
F5
D7
E6
0D
E1
CC
FF
CB
D2
CD
37
17
37
C0
A2
D9
E0
04
16
3F
0E
1F
DB
CE
CD
1B
E6
07
23
30
00
EF
08
DE
20
21
FE
2A
39
2F
20
F2
2A
E6
DA
1E
1A
21
15
4B
23
29
12
12
2E
F7
36
CF
BC
BD
B4
E1
CA
FF
19
1A
46
FD
0C
D7
2C
06
F3
ED
ED
C1
BC
DA
C6
F2
ED
F1
03
02
D8
F8
BD
E4
1B
23
15
24
0C
01
FF
0F
0B
36
25
18
1A
14
10
BC
BE
B1
13
3C
44
37
42
6A
D4
F8
14
01
1F
32
11
F9
FF
F3
F0
05
A5
D6
D3
D6
E6
E3
F9
0B
F9
0B
FC
DA
F7
02
EE
E4
EC
DE
4C
62
4C
08
F0
0A
29
08
FF
16
2F
2C
28
1D
1E
06
23
21
E4
D6
DC
EB
1D
3D
11
07
08
02
DA
BB
C7
C2
B8
EA
F5
ED
1D
1E
23
19
20
FD
07
2B
0D
47
63
0E
CC
D7
E7
1B
29
1B
D4
36
0D
B0
F8
FA
F3
F7
E7
05
21
FD
F4
05
F9
E3
FA
FC
D6
E5
21
29
45
20
20
09
14
37
29
03
15
21
0E
0E
0C
F0
FF
DF
F4
1B
20
24
31
21
FC
37
37
23
12
EF
D6
F3
E6
B5
22
34
0D
0E
FF
0E
0E
09
14
07
05
0D
2E
2D
E3
3E
F9
2F
B6
BC
E1
ED
FA
EB
E0
D5
EB
D8
FB
EF
09
D8
E4
3A
3A
1B
49
D9
F5
27
25
0A
D9
D5
E1
20
36
3D
D2
CD
24
47
10
F1
0C
FF
DC
FC
06
1C
D0
00
EB
0A
19
35
30
1C
25
E6
FC
EE
1A
19
1D
FD
D7
EF
05
DA
04
C8
CA
DF
FB
02
1F
1F
D3
05
31
0E
07
EA
E1
DB
01
20
27
D5
F2
F2
08
00
F7
22
15
DE
ED
ED
F7
EE
D0
B5
CC
D9
EE
C8
D4
C1
24
F2
FD
55
59
3E
EA
CD
F2
AC
CE
B9
21
FC
08
3F
51
68
2D
0C
07
07
F8
08
2C
34
42
03
31
2B
A6
A5
AD
12
27
22
F0
F2
21
04
F2
11
EB
CC
EA
33
11
08
D0
CF
E8
F8
13
14
E3
F5
EB
1A
10
D3
E2
F2
EA
3D
37
13
21
F7
11
08
22
10
19
04
19
34
F9
D7
CB
BD
F5
E3
E4
E4
09
F0
2D
0E
20
25
FE
0A
02
D4
CD
D2
E3
EA
FA
EA
FB
DD
11
14
18
29
08
0C
F8
FE
E3
3C
49
34
3A
38
44
93
C1
B9
40
26
1E
41
28
3A
DE
E5
D8
0E
FC
FA
D2
E7
ED
0B
1D
F7
F1
07
35
AC
9D
B8
2B
29
14
ED
16
F9
E7
DE
C0
A5
DA
F2
2F
3C
12
0A
DE
28
1A
00
CB
21
09
E7
18
3C
1A
E0
F3
E3
07
01
E4
09
F4
12
2E
34
28
F2
14
EE
CE
CF
BC
D5
F0
D7
EC
ED
19
34
57
2B
68
12
1C
07
F8
F4
0C
EF
F5
31
24
4D
C6
27
C6
D9
19
21
F0
CE
CE
2C
12
1F
F3
E2
EF
C7
02
C1
FB
F4
F2
17
DF
E5
F8
29
19
26
E7
EC
05
08
26
4D
45
78
CB
16
07
00
04
01
40
40
30
E6
10
DB
EF
D3
EC
11
00
F6
E6
25
EE
45
1C
66
40
1B
29
19
41
FD
E3
FF
CE
0C
E3
0E
B9
D6
E2
EF
14
19
D5
F4
EF
CD
D4
DE
DB
E3
CF
14
26
16
29
F2
04
EC
DA
F2
C9
C7
CE
39
17
E5
D8
E7
29
0F
F0
FB
0B
36
05
E4
02
D0
F3
06
49
5E
F8
32
15
3B
13
D9
AA
9D
08
02
E4
E9
08
E6
DC
F8
DC
2B
F6
E1
E2
19
D0
27
25
07
0F
0A
25
E8
CB
EC
EB
E5
05
04
CA
2E
E3
F1
03
14
25
1C
F0
E6
14
FB
BD
E2
EB
E9
E7
CB
E1
CC
2F
E4
4E
FD
55
1F
E1
1B
13
E2
F8
FA
27
33
3D
FA
FA
28
EF
53
39
FF
37
1A
24
0A
1E
20
46
5C
00
FF
DE
E8
1D
0F
27
0C
1B
26
E0
47
BF
D1
E5
2B
27
18
FB
F7
03
AB
BC
BC
D7
EE
F4
03
F7
1D
F3
12
05
2A
29
0D
14
17
18
E5
E2
D8
D3
EB
03
0D
20
04
DB
ED
E2
0E
17
29
28
EF
0E
2E
4A
5D
D1
D8
EC
15
15
0C
41
27
29
06
19
36
28
3D
2B
10
0D
F9
E7
F1
D1
E3
F0
01
E4
CF
D2
F9
EF
0C
D5
E5
FF
12
01
DC
2C
16
2F
39
14
30
32
0E
00
CB
EF
D4
CD
D1
06
24
18
1F
C1
C1
E7
07
EF
D5
EA
ED
DE
F2
E5
E6
73
65
65
E0
20
0C
03
ED
04
1A
39
2E
E6
E3
F5
40
48
48
F3
F0
0C
01
04
F1
2A
F8
02
21
0D
25
E1
F5
C6
DF
06
2F
08
11
1E
20
1A
1E
DF
E1
24
3F
48
22
CB
CC
FA
0A
FD
E7
0C
D7
0F
F3
E9
D1
0D
24
33
DA
FC
B2
FC
0E
0D
18
34
1E
B9
1A
F0
29
5F
38
CD
C9
D1
27
EB
0C
1E
1A
2E
C0
E2
F7
EE
1A
4A
E7
EC
F0
ED
F6
F5
19
12
2A
07
DD
D2
FC
D0
E5
FC
07
11
02
E3
E1
E1
DA
D8
01
EC
17
31
EA
E1
02
13
08
D3
CF
DF
FE
09
EF
00
0D
15
50
2C
33
2B
05
00
0B
17
00
0A
10
F5
FC
33
3C
D0
E0
CF
E9
21
06
FA
07
17
09
FC
E6
F8
0A
E1
21
2F
1F
1B
FF
FA
DD
04
C0
F9
FC
FB
1F
F0
17
3A
FC
27
EE
E9
F9
E9
DD
C5
19
FD
04
CA
E0
D5
E2
FA
B6
26
27
1C
C2
B6
9F
49
2A
22
2E
2C
34
59
34
33
16
E3
20
F0
F7
57
2F
FB
03
FB
0B
06
08
F7
F2
CC
E3
C8
1A
28
12
EF
DC
E1
CC
D2
D8
E2
BE
D5
3D
29
34
E8
16
DA
C4
D0
D5
3A
47
4A
D0
CA
DB
B3
B9
D2
2C
26
09
EF
DD
09
D6
E5
24
0C
13
1D
DC
E2
CD
16
06
F9
51
4C
42
17
1C
F2
F2
16
D6
F0
02
1F
3E
14
40
14
18
0E
21
F3
04
E2
02
E4
F9
CD
D3
05
23
2E
D5
E0
CA
16
E4
2F
CB
F1
F3
EA
F4
F1
E7
F7
01
2D
03
3E
06
08
1C
09
FD
F5
1A
F5
09
2C
2B
0E
1B
F4
02
EE
F2
ED
C5
D7
E8
1E
07
16
12
26
31
02
15
13
05
0D
06
2E
2D
06
FB
0F
05
C6
D8
C6
EE
EE
EE
1D
FE
08
0A
18
27
04
E7
FC
F7
F0
0C
5A
6E
57
ED
C0
00
1F
15
03
32
FE
FB
1C
28
20
28
4E
4E
00
F1
EE
E7
22
26
E2
0B
FE
2A
32
10
B4
CF
B2
C1
E9
F3
D3
04
16
16
03
24
C6
F1
07
7F
76
FD
F4
0A
DF
0E
1F
F9
26
F6
08
D8
E5
1E
27
23
2A
E3
D5
DB
C4
D9
D8
06
F8
FE
FD
06
04
1C
1C
21
19
01
1C
08
F9
3E
38
30
3F
01
F6
E1
0A
10
CC
12
16
09
03
F2
DF
E9
03
E4
08
27
13
E4
E0
2B
23
1A
0F
1E
1B
23
03
01
EF
1A
F3
16
CA
E4
ED
42
40
37
B8
C4
D8
E1
CF
09
DE
E8
DD
08
1F
FB
E4
05
D9
38
30
29
29
09
F1
2D
1F
F5
D7
C7
C5
2C
1D
09
05
1F
EF
2B
47
3D
E9
D6
DB
28
19
15
0F
DD
E1
0D
FE
02
14
1E
18
0B
0C
F1
18
1B
3E
0A
E4
F5
03
09
0E
09
EA
0C
04
12
EA
F3
1D
1A
1C
3E
2D
F5
CE
F2
00
14
0A
1B
F3
CD
DB
F5
0F
07
08
02
E3
B5
C7
E6
ED
F3
F1
E3
DB
DB
D9
EA
CC
0C
F6
06
2E
EC
CD
1C
20
C1
B6
E9
1B
0D
0B
20
44
1C
36
EE
1D
FC
FE
E9
20
2B
24
FE
12
0A
E5
CD
B3
22
18
E8
DF
FF
0B
09
19
16
EB
DC
E7
1B
0E
19
97
BF
C0
05
31
20
D5
DE
D9
FA
0B
D8
19
19
FE
45
1A
2D
1A
FD
D9
F7
20
20
0F
07
0F
F8
07
CA
C1
C9
F0
D1
CC
D7
3A
38
29
E5
F4
02
38
20
0B
33
17
1D
16
03
15
DA
EC
05
1C
20
2B
DD
F5
FA
E2
E9
EC
0F
CE
DE
E3
AC
C6
32
36
47
E1
CC
B8
ED
D9
D6
35
09
0D
DE
0F
FB
08
E0
02
13
CA
E2
FA
06
E8
30
43
19
F6
D4
D8
1E
33
1D
F5
FA
08
17
D5
DC
E7
D3
F6
1E
1E
F4
D8
F8
FD
F9
27
1A
D2
CE
D3
1C
06
FB
28
32
35
E5
14
B0
EB
E4
0C
F4
FF
08
21
02
18
F7
ED
18
0E
E2
2A
05
08
32
97
DC
C5
FB
E7
13
04
FD
16
E4
EA
E5
F6
C8
35
D9
ED
E2
2D
2F
28
E4
F5
D5
0A
12
09
26
46
19
16
19
D7
09
01
03
D4
B4
C9
EE
0C
D5
21
0C
F7
BC
D7
E9
18
14
09
C2
AF
AD
E1
CB
CB
07
F3
0D
14
14
F0
FE
02
0C
11
D9
DE
C6
07
E4
E5
DE
EA
EA
08
F9
EA
1A
26
13
E0
E6
25
0C
1C
EE
27
D0
25
33
2D
49
38
3C
2D
31
1D
DC
C7
E8
C8
C6
CB
F5
EF
CC
F0
F3
E1
CA
E4
C9
EB
1E
F6
16
FA
0C
D2
ED
DC
EA
EF
14
C8
EC
05
F0
C8
F9
DC
ED
DD
30
3A
6A
E4
0F
F1
27
2D
3B
E2
FA
03
2A
17
D0
13
CA
08
D5
A3
A3
F0
EA
FB
D4
B1
A5
1D
1A
1A
2E
FA
1C
22
3F
56
CB
FF
EC
F0
D9
FB
17
37
0D
3B
57
61
34
26
45
D8
E9
DB
E3
DC
E4
21
31
E6
31
2E
16
E1
EE
E9
D2
C4
00
E3
BE
D8
C9
DD
E5
28
0A
3F
C7
A1
B5
16
12
29
21
1D
11
EE
DF
F2
2C
27
0D
32
42
32
EF
F8
E9
2D
2E
08
3F
47
26
37
09
09
F3
1E
02
0F
02
04
00
DE
10
12
D3
10
CA
2A
EC
F8
C1
A9
07
E1
E0
24
2E
63
F2
0F
FD
2C
19
17
F1
C8
CE
33
24
1B
44
34
3C
35
12
52
E0
0A
E6
F5
FB
ED
E5
D3
B8
F4
15
09
D7
D2
CA
DB
A5
9F
45
3C
61
CE
CA
C4
05
C3
C7
1D
2C
30
CD
0C
FE
EC
09
13
0D
FB
06
11
11
F2
30
34
29
FD
EE
15
14
17
2F
30
18
35
0E
00
24
02
D3
F1
00
21
E6
C5
DD
10
0B
1A
4A
E2
E9
E0
1B
0A
0A
37
2A
2D
ED
E1
C6
F0
D1
C7
E4
DE
1F
F8
00
0D
0B
06
E3
06
06
E1
0A
E0
FD
DF
EA
E4
EF
E5
E9
2D
08
2F
B6
98
A8
1E
0B
4A
11
FA
19
1E
42
27
EA
FD
EE
01
F3
00
1C
36
07
E5
09
D4
10
12
E0
CD
B3
E4
24
1E
EE
EC
F4
DC
BF
B9
E7
10
F5
2B
E8
D4
D2
CC
BB
AA
2F
20
24
35
F7
3E
E8
E9
F8
0E
08
07
DC
ED
FA
E1
F0
F0
34
1F
E1
D4
1E
02
FB
11
EE
1C
24
2E
D8
F8
DD
0C
1B
10
72
36
38
47
35
32
05
EE
EC
FE
AF
FC
CE
D0
D4
F9
05
28
C4
C5
AB
1C
1E
EF
F3
1F
EF
BB
E3
DA
FD
1F
24
E6
F5
11
D4
B6
D7
E9
DA
F2
53
59
7F
0B
20
4D
12
35
2C
24
25
20
29
F3
C7
23
F5
03
E0
02
F0
1B
38
FE
F0
EC
C3
25
09
F8
DF
0B
28
05
02
36
EE
18
CD
B5
E0
E7
42
3A
0F
42
36
29
52
24
33
D2
D3
BC
E3
C8
D9
E2
E6
F1
29
12
0F
05
EA
FD
E5
03
FE
B8
F2
C3
B0
CB
C2
17
0E
25
C6
A4
C2
FD
FA
20
28
EF
1B
FE
ED
DA
E6
E0
E9
32
24
26
E7
F1
EB
23
E4
13
34
22
35
37
FC
FD
E5
12
E9
17
28
08
0A
DC
E9
D6
02
03
FF
D8
30
04
C0
0F
E0
04
05
FE
2B
33
E7
E6
DD
E8
F3
1A
B7
B4
B7
2D
10
07
0D
18
04
01
EB
EF
EB
F2
0A
21
30
36
F8
D8
E9
D6
CB
DE
03
CD
04
EB
E8
EE
1C
13
10
D0
CD
C1
EF
EE
D0
25
29
3D
11
16
29
DA
EA
EB
F5
E6
D3
05
06
10
2A
2F
23
2B
CA
C6
10
18
37
DF
D5
E8
D9
E4
A2
15
DC
E7
11
29
05
CB
DD
DD
07
13
E8
CF
BF
E6
0D
1F
20
0B
36
22
F4
FC
24
D5
31
F6
10
29
42
0A
1E
19
12
3F
4C
32
E7
16
15
28
43
A8
AB
CA
F8
FE
FD
02
E1
F5
EC
DF
EE
32
08
06
02
E0
CC
2E
1A
14
DB
CE
C7
04
08
F0
2F
41
36
25
01
F6
FB
28
1E
D2
C8
E8
F7
D7
C7
3C
25
14
0F
07
FF
43
FC
51
C2
BC
B1
FA
F5
EF
D7
28
EA
FB
E1
E0
36
EF
EE
FC
04
1A
E0
F0
F2
F4
EB
E6
C5
13
02
F5
32
D5
21
01
F1
13
1C
2A
FA
E8
FC
28
21
3F
3B
47
2A
39
23
FF
E0
DF
D8
F8
E1
F3
C9
E3
E9
D3
ED
C1
08
F0
F1
F8
E7
29
19
F7
DB
CF
F7
01
DA
FB
0D
C5
D0
03
02
F1
02
CC
E7
E4
3B
0E
37
F2
E6
E7
33
E6
ED
CC
DA
D0
FD
10
2F
15
1E
EC
B0
BC
BB
FB
0C
EF
C1
CE
B8
0F
01
1A
F8
FA
CA
25
46
42
D3
C9
14
0B
03
13
0C
10
12
44
55
61
23
2F
33
D0
CF
F2
E4
DA
E8
30
39
E9
00
1D
19
03
06
0C
B8
CC
D8
B8
E2
F3
D0
BA
F5
16
30
42
B4
B5
BE
13
3C
34
FB
17
49
FC
CD
E6
0D
E8
B6
2E
21
1F
FE
F1
EB
57
50
31
2C
19
2F
15
07
FC
04
2C
07
08
EB
01
2B
F2
12
E5
17
38
03
D7
D6
B5
CE
D4
CF
DF
DB
31
51
4E
1C
2D
F5
03
13
ED
00
06
EB
E3
F2
05
27
33
1D
21
30
2F
1C
EF
0F
2D
2E
41
04
F4
DB
EF
F0
CD
ED
F9
FC
C7
D6
BD
0D
12
1F
CA
C9
E7
F9
0F
C5
3D
34
31
EE
12
41
27
07
E9
D2
F4
D0
F4
DE
0E
46
23
07
EF
DC
C5
12
05
F4
F5
03
01
F6
E3
FC
5C
2C
33
11
01
04
DC
F5
05
38
36
29
EB
DA
CA
45
35
49
15
16
0E
23
F8
E5
3B
07
E6
2D
F1
50
E4
00
F0
E7
F5
25
20
16
D8
0C
22
4E
D1
F4
FD
0B
14
26
FC
05
1C
FC
E9
D8
FE
E2
DB
06
D4
A3
35
36
59
E1
DF
D8
FF
0E
08
41
45
3D
BF
23
F6
2C
33
2A
D3
CD
CB
0A
E4
EA
17
24
09
C0
D0
F1
27
28
4A
CA
D5
B5
ED
DF
D3
07
3D
21
17
10
1B
F9
EF
F0
FA
0B
F1
F0
E4
D2
DA
DB
D2
03
40
07
F1
0A
D6
25
F0
F9
FE
F6
14
D4
D0
01
13
1A
12
56
5C
35
46
0E
1D
05
07
08
FD
E4
EE
F5
16
E9
C5
E4
AC
E4
15
10
12
D0
17
F3
FF
EF
D9
E4
E2
19
19
42
DD
E1
DB
88
FC
C1
F4
02
08
1A
2D
3E
22
0B
0F
20
1F
F3
E8
DA
EB
D4
01
03
1A
D6
E0
E6
E4
D8
37
1D
24
AF
B1
8D
42
2D
2C
EF
FD
DC
59
43
3B
DD
16
0E
09
20
26
2E
39
03
1C
3A
30
15
15
32
E2
0C
FC
00
14
F3
2C
3C
2B
CD
EA
F2
E0
D0
DA
17
17
33
F8
D8
09
C3
C4
B9
3A
29
5F
B5
AC
B6
B8
C1
DC
07
FB
06
D7
CB
E1
FF
CD
16
1A
05
19
C5
F2
D9
0F
15
15
4F
49
51
1A
27
0A
F6
FA
F2
F7
F6
0C
39
0E
3E
1B
F0
41
F7
ED
EE
C3
02
F6
FF
D0
EE
15
37
6D
E6
EE
D8
2D
ED
3D
D0
DD
BB
F7
FE
F6
EC
CF
F6
33
0A
12
CC
11
F9
EB
CA
BE
ED
E8
0D
1E
30
22
1A
0F
13
FF
E4
0E
C5
F5
FC
20
DB
DB
FB
FF
F0
DD
BE
D8
F7
DB
DF
0B
25
1A
3A
5C
3B
0B
3F
18
BF
BB
BC
33
19
07
18
E6
29
1C
1B
42
C8
CE
23
D3
AE
B0
2F
F7
04
27
0C
F3
CF
15
ED
26
2E
35
D6
B3
CF
DC
13
DD
D2
DA
12
BF
07
D5
E2
F0
DF
FD
08
ED
28
FD
BF
23
24
D2
EC
16
1F
FB
FD
D2
1C
1B
17
16
F9
F9
04
4A
08
08
1F
04
ED
16
24
CA
B5
B0
44
16
35
00
01
01
B4
CA
9D
F2
13
21
CF
E9
AD
1F
49
44
EF
07
0D
B9
E8
F3
3C
4A
26
D4
D8
EE
28
1E
33
1F
35
2D
BB
B6
0A
29
EC
15
17
F9
33
17
36
1A
37
51
37
18
22
2D
04
10
2C
C5
03
CC
1D
F5
01
38
0B
F9
E6
F6
D0
EC
DD
C5
9B
EB
FA
C3
E3
E0
0A
0D
F8
F6
DD
41
0C
CD
14
3D
36
2D
29
F0
13
C7
CF
FC
0A
3A
0A
28
FF
42
D4
F4
BC
FA
41
E1
07
17
4D
08
20
25
F0
AD
AD
EC
F7
F5
24
F8
F4
23
32
5C
F4
FC
DA
27
32
37
0C
2B
42
FB
E0
0E
3A
03
13
D8
B6
AD
2B
E5
C9
AE
CF
E2
19
01
D9
F0
BF
F5
D3
FC
C4
D3
D1
CC
B9
DF
CF
EB
26
FF
2B
43
2C
0E
F5
F5
26
F6
F0
17
29
5C
00
03
E1
E4
15
37
FF
2F
FE
CD
E7
C5
31
44
1B
15
16
F7
EA
CE
E4
0E
43
0D
D9
CA
C7
0E
03
01
36
27
25
DD
C7
B4
E1
F6
E4
F2
FC
FF
34
EE
19
F1
07
F2
D4
D9
CF
D4
14
FB
1A
24
34
45
31
27
0B
01
0E
D4
B8
BA
17
0B
14
02
07
D7
33
14
1E
B6
D5
D2
D2
D9
EE
15
07
13
C2
FA
D3
0F
13
04
19
21
07
FD
12
10
2E
36
0D
2F
1F
1A
B7
BE
BF
28
3A
1A
49
48
5A
D4
EF
E3
10
FC
3A
F6
F9
02
14
E6
00
BF
D9
16
CD
CE
C3
20
FD
FF
F8
BE
12
FB
E1
E0
CF
E3
13
34
23
13
EF
00
D6
62
19
EA
01
19
FB
36
3D
28
DF
27
F7
FC
E0
C6
FF
44
36
06
F4
10
31
F0
EB
C5
D6
A8
AD
CF
C0
D4
F8
24
09
4F
12
38
14
2E
45
35
1F
C8
DA
03
34
3F
27
F5
F7
D9
BF
F2
0F
E2
FE
E7
23
25
15
DB
E2
E7
ED
DC
D1
F4
0F
19
FB
08
11
1D
09
3F
18
F7
21
0E
00
02
2B
23
40
D3
FC
E9
1A
27
24
11
30
42
22
18
D6
23
E3
D3
D1
FA
FE
23
0A
ED
24
36
1C
28
20
2F
29
33
1A
03
14
30
0D
1B
3A
B9
A8
E6
FA
1B
D5
C7
E1
DA
E1
F7
E3
EB
F0
D0
2D
39
17
2A
0C
D9
20
0B
42
DF
CF
C1
44
0C
37
05
E2
1D
25
3C
34
F2
21
FB
FE
12
F5
16
BC
16
FC
22
1A
39
2C
31
CB
CD
CA
0E
F7
00
DF
09
EA
04
02
0A
C6
FA
F7
DB
EA
36
FA
06
F9
FA
08
1F
ED
C7
E8
10
FA
10
EC
35
E1
F3
F0
F4
E9
30
EC
02
05
EF
D7
D2
BE
D0
CE
E1
C8
CC
AD
F1
1F
15
5B
5C
26
20
DA
FD
A4
E8
B9
2C
28
21
2E
4D
5A
24
F2
F2
22
3C
FB
28
FD
27
37
1B
41
D4
D8
C4
24
FF
35
07
F6
2C
36
E8
19
CC
E0
D7
36
17
1F
D6
C3
E4
C8
E7
F2
DC
F4
C5
DE
10
D0
EF
04
E7
2D
23
23
FB
08
C5
1C
22
1D
FC
10
10
11
E4
E0
B5
C3
E7
F2
EA
DC
0F
E6
14
06
26
37
37
40
3F
EB
F9
EB
F7
D2
E1
17
39
0E
E3
F9
F6
BA
E2
E1
06
F8
22
11
0A
D8
FE
08
20
DF
F6
18
E6
FC
02
0B
E3
F1
28
F2
FB
13
F5
10
BB
C1
C1
17
1B
34
0E
30
38
DF
F1
E1
32
EC
BF
EE
0C
F3
38
D1
D8
06
F7
E3
05
D4
E2
F8
0A
E2
E2
D3
CE
E2
F4
B8
01
12
0D
DF
EB
EF
36
17
49
F6
F8
D4
0E
29
E9
0A
44
1E
DE
15
18
15
1A
26
11
DA
19
15
14
50
F8
AC
FB
F7
E7
2B
28
12
E8
C9
D7
EB
02
D4
21
13
23
FB
1C
0B
EA
EB
DA
DA
DB
E2
DA
E3
CC
E8
DB
E9
FF
B6
C4
C4
F0
15
F9
E2
0F
15
1D
44
35
31
20
19
3C
06
37
F0
ED
D8
03
F1
01
D9
0C
00
BF
F9
09
1C
22
33
00
FB
26
09
00
1D
12
0D
12
CD
F9
E4
D6
DC
29
DE
C4
30
09
37
21
C4
16
D1
EE
11
4C
12
14
1B
F6
F8
06
00
0B
07
DD
2B
19
24
0D
06
BC
E1
DE
F4
E2
02
E1
26
D1
2D
E4
DE
0B
21
21
DD
06
D8
E7
1E
27
21
26
25
F9
F8
E8
15
F0
EE
FD
FB
EB
1C
1F
E9
DF
ED
DE
EB
07
21
0E
E8
D5
39
01
E7
E1
E7
DF
EB
0C
FF
DF
E6
DB
15
D3
FA
CD
EB
E9
36
ED
06
DD
BA
F8
22
F5
00
37
14
14
05
1C
FC
02
FB
31
D3
C8
D4
00
27
09
25
1F
33
22
38
44
D7
D9
E0
0D
E1
FF
03
21
31
E8
E5
F6
F0
22
15
36
35
38
04
21
18
FB
F5
E3
F3
EC
EA
F8
03
F0
43
24
ED
15
32
28
AC
BB
B2
0A
DF
0F
1D
0E
03
06
3A
16
03
F1
FC
2A
EB
10
F5
15
F4
C5
07
05
19
2F
ED
F6
06
04
1C
44
21
28
E5
0B
2F
33
38
14
2B
24
CA
EF
E3
F8
F5
ED
15
00
04
DB
E7
ED
E4
F5
FF
24
1D
0F
38
16
13
1F
05
1F
A8
E2
FD
05
14
E0
3D
1C
2F
D6
07
CC
E5
E6
FE
F3
DD
B4
23
25
11
16
1A
36
A7
AC
B2
14
1A
02
17
F6
EE
22
E5
C1
B3
EE
0F
0F
06
F3
E3
00
F3
09
F1
E1
EB
0A
D3
28
37
3F
E3
DE
C4
0B
1C
2E
14
FE
E6
0A
F3
03
DF
00
FA
CD
D2
DB
0C
1C
ED
E6
CB
0E
4A
7D
2B
4C
14
05
28
02
F9
1D
F2
E2
E3
0F
2D
DB
1E
C9
0C
19
09
10
E6
CE
11
0E
1B
E9
CE
C9
B3
F1
DB
08
19
22
C3
C6
A6
02
24
35
2B
F2
F5
01
09
16
50
27
3E
17
23
0A
FA
0A
F3
34
27
1E
DE
EC
08
0A
0E
14
00
21
F8
14
29
43
2B
37
5E
2A
1B
37
0A
F3
19
F3
0D
0F
FE
0F
13
EE
00
FF
ED
24
33
CE
EA
13
BA
D0
EE
D9
F1
DE
EF
13
2A
2A
16
16
03
E0
C9
D5
EA
D2
0A
15
16
E4
0A
23
10
EF
0C
2C
2D
F0
ED
EC
F0
01
0D
0B
44
21
54
27
3D
19
E5
D1
B7
01
01
EB
EB
FB
15
ED
EB
E2
16
F0
CA
EE
E6
00
17
1D
1F
0E
E1
FB
E8
E8
EA
A0
D7
E8
CA
E4
02
BE
C8
E2
1B
EF
E7
06
F2
0A
05
CA
FF
FC
F7
05
C5
FD
DD
19
20
01
F9
21
EA
ED
18
20
15
08
0C
33
3B
68
EA
03
0A
32
13
41
1B
0E
3A
E8
FC
0C
26
3D
64
14
12
06
0F
FA
0D
0D
06
13
01
12
30
BC
EF
01
0A
12
08
F1
1B
F6
B9
A7
9C
F9
BE
0B
1A
07
15
09
21
04
04
0B
FF
1D
1A
16
F0
E8
17
ED
0D
EA
05
21
10
E9
E1
E1
09
3D
43
07
D7
FF
34
35
3F
1C
16
26
FB
FA
D4
F6
0E
F6
FB
F1
1A
CC
B7
D1
CA
DD
F3
24
20
27
F7
E5
B9
FB
F2
09
DD
13
19
EA
E0
DB
03
14
0B
FB
D6
D7
DB
17
CE
06
DC
C2
47
3B
51
15
04
19
DF
FC
C4
0E
CE
EA
DE
33
1D
17
2E
33
EE
E9
F5
E3
AB
A4
FF
11
FB
13
23
D2
09
09
B0
0D
23
3D
CF
B7
BD
1B
E7
05
06
F5
FB
BD
F4
0A
14
27
E9
FC
1C
2D
2E
F7
04
11
DC
D9
DB
01
1D
E2
AB
ED
DE
E6
03
FE
37
DF
E4
FE
E9
18
15
EA
0B
04
F2
D7
B8
C5
E6
E8
11
FC
FD
FC
CD
95
B2
10
F4
35
D4
B9
BD
3A
48
31
0E
08
1A
F3
F8
FB
38
3C
F7
E7
EA
F2
13
29
1E
F6
12
19
06
0B
0D
F3
FC
23
EC
31
F9
18
E7
1D
3B
4A
1B
1C
1B
1E
B3
B7
DD
E1
F5
D3
B8
BF
D3
38
24
2D
C1
A3
C7
EA
F5
FA
06
E9
19
AF
F9
0B
E3
04
F8
F1
04
2A
DE
15
ED
0C
26
1B
E5
0A
EC
DA
21
2E
FC
20
02
46
3B
40
FC
E5
C7
2D
08
39
25
ED
10
11
11
06
FB
05
BA
F6
E3
D7
23
0B
FB
09
34
33
28
06
DF
D6
D6
29
0D
3A
2B
DE
EA
EC
3B
38
4B
F5
C7
D3
0F
27
C9
AD
C3
CD
04
D4
00
EB
B1
DA
DC
FB
E2
FB
F4
02
F1
07
14
D4
F9
02
EE
DF
0E
12
EF
FC
31
0D
17
43
1E
2F
E4
DC
DF
FA
1A
49
FA
2D
3A
E7
DD
DF
06
25
1B
3C
25
1F
07
F8
03
02
07
07
17
D0
DC
02
DD
0D
2D
45
04
F7
09
19
D7
F4
DA
18
D4
F2
E7
16
DB
11
14
08
BB
CF
B8
FA
1B
BA
FB
1B
38
19
21
22
F6
2A
20
D8
C1
E7
01
18
1C
D4
2B
E4
01
0F
35
EC
F0
05
22
1C
13
3C
3D
64
03
F6
34
11
2D
14
1E
F1
DC
F0
08
DF
D5
09
DE
E3
DC
CC
F7
09
11
C9
F5
F8
FF
FB
15
3D
23
41
FF
26
34
1B
27
FF
15
0A
CD
E6
C0
CC
21
0E
2D
E9
D9
D5
2C
30
EC
E4
F5
11
28
D7
06
6E
50
50
ED
1F
ED
1B
EC
0E
06
30
EC
E8
F2
FB
40
69
37
11
F3
15
FD
F1
F8
F9
28
14
1A
00
41
E3
E0
D6
E0
D7
FB
0A
1E
30
07
2C
23
D3
FA
13
67
60
3A
EF
DB
16
EC
DE
CC
F3
08
23
FD
F6
0C
30
43
43
F2
04
CF
EA
F4
F4
20
1F
2A
CD
0D
ED
25
30
35
DD
C0
CC
3D
03
10
22
18
27
C4
D3
DA
00
0F
0A
01
F0
E6
D7
F3
D1
3C
F6
1E
1D
DC
F6
EE
F4
C0
F3
1C
E8
F3
DA
E7
D7
D9
D1
FF
0E
31
FA
D4
C8
03
03
14
00
D2
F0
15
03
0E
F9
F7
15
45
2D
27
1F
F0
F0
0C
1E
0D
27
21
CC
F8
F7
0B
DC
D7
C1
12
25
FE
04
3A
3A
01
14
F6
F4
FC
DB
0E
2D
3B
DB
30
15
EA
D1
E3
01
FB
F4
16
01
25
28
1B
28
E0
EA
0A
EC
F7
FB
E0
CE
E4
E8
FF
EA
01
0E
DC
3C
43
15
B4
BE
A1
27
31
01
CB
2A
CB
2D
15
31
24
E3
28
D9
0E
3C
1F
26
31
14
0E
1C
FF
10
15
05
FB
F6
05
16
E0
D9
D4
19
B7
D2
EE
E5
C0
E0
2A
24
49
E9
F3
F7
CA
C1
CE
44
39
21
D5
DB
D3
AD
BF
CA
2D
0F
0B
FB
D8
ED
EA
06
E4
18
F1
F5
E8
E5
FF
FB
E7
00
34
52
2E
F3
18
27
B4
0A
ED
12
FC
0A
3F
32
45
E0
D9
E6
36
DA
23
F3
02
C4
FF
F2
00
F9
F1
33
DA
E3
B6
35
06
FA
D3
ED
DF
4F
34
2E
F7
07
0B
35
47
34
31
4D
32
B8
C0
E9
D3
F1
E9
48
3D
22
D6
D9
0E
CF
ED
F4
02
29
10
B8
E0
03
FC
DC
D8
2D
07
28
E2
F4
D4
14
07
12
09
38
17
F1
0F
18
DC
F4
F2
25
F6
F8
49
40
2B
22
2F
01
50
0F
09
14
F4
0A
E7
E7
BC
F5
F5
DE
C4
DE
01
2F
38
1C
0F
FE
0B
45
16
25
15
E3
15
E9
20
2D
1C
1A
F5
BB
D2
F1
16
15
05
C6
D2
DA
1D
14
C9
0F
B7
D9
F7
FD
FE
50
35
2A
D8
0F
F5
0E
DF
35
E0
2A
EB
3F
25
27
AB
9F
AF
B7
D8
C6
BA
F8
ED
F2
1B
29
1B
BD
C7
C1
F5
20
02
12
42
3F
2E
2D
FC
F9
26
1C
1A
0B
FB
FA
E7
ED
AF
B3
E7
DC
EE
F8
3A
0E
D1
0A
09
25
3E
20
22
25
2B
FE
F4
05
30
33
26
EB
D4
D1
0E
10
18
0A
0F
24
10
F1
FE
EC
EA
00
1D
1B
04
3A
16
1A
30
21
FB
B8
FB
24
DE
03
F1
C3
EE
D3
FD
D4
13
07
D5
50
0D
FC
27
F1
B9
C1
00
09
24
15
F2
17
13
FC
42
F7
FB
F9
58
3A
01
12
17
2C
00
2A
2B
ED
0D
FA
E3
ED
F9
2F
05
24
4E
31
20
41
06
F9
02
0C
DC
F4
F4
E8
D0
E4
DB
AB
E0
E0
4C
31
DB
B6
E4
BC
34
02
0F
55
52
F7
32
26
0A
F4
13
F5
BB
BE
A1
08
29
FA
EE
1E
0D
0D
3B
38
0A
F2
28
43
06
DF
D7
03
04
F6
F6
FD
D7
04
F1
33
0B
18
3B
FF
3B
C5
EC
EB
2A
2B
11
02
C4
CA
13
12
0A
D9
EF
37
E0
EC
BE
BD
18
01
14
35
0F
2A
48
2C
18
F3
1E
21
CE
E8
19
C8
F4
13
C5
24
EE
D4
E6
EA
FD
DA
FF
F2
FF
C9
27
DA
EB
D8
EC
D5
DE
E3
EB
DC
E1
19
1F
38
D6
E9
AB
F1
DB
D8
1B
34
31
35
3B
42
0F
1B
E6
ED
FE
11
FD
F0
E1
2D
0C
0A
FB
09
0E
D2
C7
D2
FA
C7
D7
2C
2E
4A
21
3C
35
F3
17
D5
C2
CE
BB
14
06
0E
0D
05
38
46
27
40
D7
FC
48
C1
D3
D4
F1
F0
F7
28
2F
0C
F7
EE
E8
3C
2A
31
D0
D6
DD
F7
D0
CD
CA
E8
03
14
F8
07
25
B6
DE
09
E5
D8
07
0A
C6
F0
19
21
CE
0F
F4
26
E4
D6
2E
1C
38
1D
EA
09
34
29
1F
09
34
18
C9
E1
05
CE
D2
B8
3F
2D
36
EE
03
05
D8
A5
A4
02
12
27
FC
0F
E3
12
17
51
2F
1E
F7
CF
C5
E9
13
16
07
DB
E5
E7
24
2B
1E
06
2B
12
EE
B9
00
14
33
18
1C
1E
F8
16
1A
00
2F
28
2C
11
14
23
16
24
2F
27
02
CD
0D
39
09
0C
05
06
DD
E4
D6
D8
D8
CB
C2
BC
E4
DB
E3
D0
1A
1E
F7
DE
0A
22
FA
E2
E4
34
56
46
19
20
2B
CF
04
FB
28
4F
0A
0E
F4
17
F2
20
F3
30
2C
15
22
16
FD
24
36
30
D7
D2
D8
0F
00
07
26
15
11
5D
52
56
0F
05
17
F5
06
2A
F9
27
20
D3
CF
EB
0F
0B
F8
F8
DD
DE
CD
F3
B8
B7
C3
E5
3E
28
B6
CF
CE
EF
D1
F5
D3
D5
C0
CD
D4
BC
DE
01
08
12
54
35
42
FE
F9
08
FC
03
E0
F8
12
3F
05
38
2F
1A
E7
F9
0D
10
02
E2
D7
EF
37
46
45
19
ED
D3
BD
FE
F8
2D
24
3A
F7
F2
0B
FD
F4
F6
37
3F
1A
C0
AA
9C
F9
00
F6
D6
CF
DA
D7
D9
E7
E3
F1
F4
EA
C3
CF
F1
AF
B8
FA
D5
EC
14
18
10
0E
04
1D
A8
C0
C9
D2
E5
D6
17
01
FD
FF
15
24
3C
4E
35
08
13
12
32
37
55
19
6D
FD
CF
CB
F3
E1
E0
D3
3B
46
29
C3
E3
C3
B6
CA
EC
12
40
2D
C5
F8
E5
E5
AF
AE
30
28
2C
DE
F1
F9
D5
09
0E
1C
38
F8
FD
FD
04
EE
0F
00
1D
FF
11
03
34
F7
1B
16
0E
44
38
FE
2B
F4
F5
EA
DB
EC
CB
E0
D7
19
09
0F
EE
0B
FD
2A
0D
2A
42
34
43
03
3D
EB
08
D9
12
1B
24
1A
E2
F5
ED
3F
15
02
20
0C
30
EA
EA
E0
E9
CA
D5
ED
E7
1D
20
3E
FB
BE
CB
D6
13
FD
1A
0A
16
33
19
4F
2F
9E
81
A0
C7
C6
B3
F7
0E
36
E9
34
29
DD
D0
DA
E2
D8
F6
1C
EF
53
41
2B
37
EE
00
2F
36
33
25
FD
E0
E3
CE
CE
9A
CF
F6
0D
EB
10
F9
1A
E4
23
D7
21
02
04
06
3E
05
F7
EA
07
37
CF
CF
F6
07
11
2E
44
0E
10
1C
D2
E6
E1
D4
04
1E
56
46
22
25
2D
0C
10
1D
14
E6
E2
EF
BB
10
D7
C9
D1
F0
F9
DD
FF
1E
0C
1C
15
0F
3D
ED
E7
E7
FB
0A
1E
1E
DE
22
1F
13
FF
F9
EA
FB
71
55
1A
21
35
01
1B
05
2F
F1
FA
F6
1B
1B
E6
47
20
F1
27
4D
08
34
2D
20
D6
19
DA
00
FD
E2
BF
12
DE
D7
EB
DE
F4
42
38
A6
C2
DA
43
1D
49
49
46
2C
2A
3A
25
F3
08
BC
8A
B4
A1
3C
0A
38
34
1A
37
3C
19
43
E6
DF
FB
27
08
02
BF
ED
13
F3
E2
00
E9
D2
E9
1D
15
24
FB
3A
33
F7
B4
E4
0A
1C
E4
01
EC
FC
1D
F2
F5
F2
1B
0B
F1
F3
E9
0B
C8
0C
26
15
38
3A
2A
1F
23
E3
12
0A
F5
FF
E2
BF
D3
D2
E8
CC
01
D2
B5
F3
E8
02
E4
14
04
CC
EE
CF
E1
B5
D8
32
39
20
DC
ED
E4
F3
F6
F1
F6
3C
3A
DF
E6
E8
CE
D6
FD
12
0B
1A
2C
19
3C
34
2B
16
BD
E0
06
19
FB
FF
34
15
FE
01
EF
D8
D4
0E
1D
C1
DE
C0
11
36
12
31
19
54
B2
BC
BE
29
28
CB
CF
0F
DD
0D
FE
CF
D5
E2
1D
16
F2
D4
D1
CB
E4
C8
EE
EB
CF
CE
C9
FC
32
64
E7
F0
D6
2D
25
27
19
F1
D2
CB
1F
DC
0E
09
05
D5
EC
00
FC
3C
F4
B7
E6
C5
3A
5C
45
2F
15
07
1A
E1
F1
07
0B
10
E0
0C
00
F6
0D
14
16
ED
FF
0C
DC
F2
22
05
F2
E5
EF
C2
C5
C3
B5
26
26
25
D1
CB
9D
0E
19
2D
FF
C8
2E
08
10
1E
23
0D
61
16
22
4D
0A
EB
D5
0D
2F
2D
F0
1D
F1
F6
0B
EF
E8
01
1C
16
29
34
22
37
49
0E
2E
2C
F9
F1
23
C6
04
2B
0A
F0
20
FE
13
13
1F
F1
0B
D4
00
29
DA
EC
EC
CD
E5
D8
F0
17
22
45
17
00
EF
DE
F1
E1
DF
CF
0B
FF
16
19
D2
E7
2B
1F
EB
29
17
F0
DB
FA
E7
FB
0B
1F
4F
23
0A
0C
18
0B
DD
D7
D5
1C
0E
EF
F6
18
0C
D9
F0
BC
22
28
04
26
FD
FB
38
2F
15
E4
DF
F7
F1
E8
EF
AC
D8
C1
08
E7
1E
DF
DB
DB
28
F5
EE
1B
F1
FA
EE
E9
EE
17
14
F5
E9
0D
EB
F8
18
11
CA
2F
E4
E4
DA
10
0A
17
1F
20
42
35
E3
DF
17
20
ED
1B
17
23
3C
07
F0
03
12
4F
46
0E
1E
03
FF
E3
07
0E
00
18
1F
E7
08
CC
FB
F9
16
3A
F0
E5
2E
F2
B0
A4
B9
FF
CC
0C
10
0A
4E
32
0B
12
F9
18
0E
EE
2C
07
FF
F4
E9
E4
18
07
20
3F
FF
FB
01
EA
1F
2B
43
FE
20
14
4B
4F
42
F8
FA
F7
02
15
13
FA
01
F3
EF
E6
27
36
49
42
09
E7
F5
E2
DE
BC
FF
F2
F7
E5
EC
CC
1C
1B
1A
F9
D4
E1
00
D9
FC
39
F2
07
27
31
3C
D5
05
ED
C1
C1
DB
DD
EF
10
3B
2A
2C
16
FE
D7
11
13
11
C1
BB
D9
D7
CE
D9
2D
01
0F
1B
07
2B
E1
E8
D3
33
19
11
E0
BA
DC
2C
09
45
0E
04
24
DD
44
1E
17
FC
FA
1B
36
32
13
08
15
07
34
50
E7
F6
05
F6
0F
35
C1
C9
D7
0B
F6
FF
F6
D1
ED
1C
ED
11
F1
CB
D3
CB
C8
C4
37
13
17
F0
D0
C2
07
0F
19
3B
53
37
2E
1B
F3
14
1D
22
E2
BD
D6
DE
CE
B0
3D
11
08
D0
D3
E7
EC
1C
1F
B0
C8
B6
FF
E8
00
DE
FA
FD
05
D2
DF
1D
F0
E2
21
22
F2
D4
F8
F8
EE
F8
E9
34
DB
DA
2F
C9
23
FF
F8
D6
05
06
19
38
E6
E9
2D
40
32
40
2A
42
2D
0E
37
D8
E7
EA
19
0A
11
0A
31
1F
C3
DC
C1
07
E4
EA
13
22
0E
F9
17
B9
D5
F0
EF
ED
ED
12
07
D6
DE
ED
01
DA
DC
E4
F1
00
1B
25
04
F7
D4
FA
E7
00
AF
CD
E0
17
00
08
DF
29
E3
9D
E0
A3
04
F1
F0
CA
A9
C8
33
21
2F
D1
0C
04
62
6C
65
CA
1D
D6
25
01
4A
29
33
0B
1D
5E
3E
26
17
1F
CE
CD
E0
DE
17
0D
FE
09
F4
F9
06
25
EA
FF
02
DB
D0
DF
F2
03
FB
EC
B7
E1
2C
1A
50
D5
B7
AB
E7
37
1F
01
FE
28
E0
E8
D8
04
DF
F8
20
41
27
E9
DD
DF
48
3B
23
44
2A
30
28
42
07
2C
05
FA
06
ED
F5
3E
F8
FA
D9
1E
FC
C7
1C
2D
CC
B8
CB
12
CE
BF
29
50
52
10
16
F4
F6
D6
D3
FD
F7
E2
FA
0D
05
F7
03
08
1C
38
29
0B
F4
F5
BE
B3
C5
D1
E5
02
46
48
2C
00
DF
D4
D6
EA
F9
FF
1D
27
F2
D3
E3
03
FD
DB
CC
D3
D6
ED
C7
AA
25
2F
1F
35
4D
4E
F7
0E
0E
E3
FB
E0
FB
DE
F1
20
32
1F
52
6E
52
EC
17
27
CB
A7
E1
04
1D
23
02
F6
0C
12
38
0D
18
1B
2E
D8
BF
C1
E4
F7
DF
E5
08
18
C5
CF
ED
1A
26
C2
F4
F5
F7
22
27
D8
FA
D2
FB
D2
EF
F8
F0
FD
D8
FB
EC
08
21
22
EA
DF
07
F4
02
10
F0
FA
0B
F8
FA
CC
CD
21
33
08
02
E9
E9
AB
A7
BF
32
24
33
05
F3
D1
0C
12
20
19
00
39
C7
C2
F1
1E
F7
F5
D6
EA
15
1C
18
1D
02
0D
ED
DD
D8
20
25
08
1A
FC
EB
02
08
17
20
2F
2A
14
F5
F5
11
1D
E7
FA
D1
26
CE
0F
23
E8
2B
1B
15
F6
C4
DA
BA
D1
D8
D9
F3
01
FD
15
FF
FE
0E
F5
EC
E0
14
E6
F1
F0
51
4A
43
EB
13
07
F0
03
28
26
2D
0E
1F
2A
3B
F3
3E
00
14
E1
E7
1F
E4
33
22
25
12
18
35
E6
15
1D
10
53
1A
34
4A
60
4A
2B
BE
CB
0B
43
FF
FE
32
33
0C
D1
05
44
36
2E
DD
CE
EE
F9
CE
CE
D4
C8
EC
3C
31
36
B8
80
CC
D4
E8
0E
F9
E7
D1
E4
04
05
12
DC
D0
EA
F0
FB
10
2F
07
0C
26
2B
1C
24
28
1F
09
0B
EB
0C
F2
F4
FA
0D
D5
FD
E6
F4
0F
0C
2A
15
F8
EC
DA
E1
F7
FE
06
18
FD
F1
EA
F6
0C
26
3C
2C
D8
E8
CB
EF
F9
C7
E8
E6
CC
CC
04
E6
EB
F8
05
98
AF
CF
D6
D5
C5
05
27
04
23
64
2A
05
3A
23
F1
BD
D7
C9
E4
F4
24
DD
2E
F8
05
01
A3
D7
C7
E4
D3
F2
08
E7
13
C8
DB
BF
2B
23
16
3C
23
1B
FA
06
0C
30
3B
22
38
15
05
B3
C9
BB
2D
39
42
47
55
5C
DC
0C
01
04
0A
18
F9
11
FD
E4
EA
F3
D8
CF
ED
D8
D5
EB
19
18
0C
05
C9
F7
E5
D5
E6
DE
E4
1C
30
3A
2C
FA
FC
F7
2C
0A
14
0B
2C
07
29
31
1A
F3
25
0A
ED
DF
D7
2D
12
08
16
DF
1C
26
F0
0E
D3
D9
B5
CB
F2
B1
13
18
1A
FF
07
FE
43
10
42
4D
3E
0D
D7
E3
E5
31
43
4A
20
1A
19
C2
F5
FE
D5
FD
F1
17
16
19
E0
FF
01
F0
EE
F3
01
17
2D
43
41
11
FE
07
0D
43
36
16
0E
06
05
1E
19
06
02
E6
D6
18
18
1D
27
1F
32
2B
29
E4
EF
D0
FD
C0
09
B2
13
13
0E
2B
21
18
19
15
18
0F
15
2F
24
D2
0B
26
25
11
AD
AC
DC
FE
D4
13
DF
EE
DF
E4
BF
FE
F4
E9
DF
3F
1D
20
00
30
04
F6
13
46
E5
C4
F2
3F
08
F9
CE
34
DC
27
29
27
FD
28
F1
0F
00
DA
D9
0D
FE
2B
28
12
39
2A
41
C4
EB
DE
19
FC
0C
EC
F1
E4
0E
F2
06
18
F0
D7
E9
DA
03
FA
D3
EC
1D
0B
1D
D5
EA
EF
0E
11
33
12
28
CD
EF
03
12
CD
17
D0
F4
01
00
E9
D9
DB
DD
CD
F2
DF
D2
C1
22
D9
1F
4A
49
2F
0E
DC
1F
B1
CB
E0
02
0E
F8
4F
50
55
3C
07
04
08
29
10
2B
0B
39
3E
2F
22
B0
AA
AB
1F
23
FC
0D
1C
25
FB
14
EC
D6
DB
F0
28
20
0B
D0
E5
F4
E6
03
F0
E9
E6
EE
02
CE
D4
DD
E3
CB
29
1F
16
10
D6
0A
1E
E1
49
E5
E7
DF
2F
DF
D5
C0
CF
F4
D5
E4
CF
F1
17
FE
04
2F
36
