02
E4
F2
1F
F7
F9
0F
EF
E8
02
F9
F5
15
EB
F6
EB
08
FB
11
08
03
F7
1C
ED
18
F7
F2
ED
F6
0E
02
05
0F
12
08
F8
1C
F6
00
0F
04
E7
F9
EE
0C
F3
E9
FC
0E
06
11
1B
0E
F8
0B
08
F1
FA
06
FE
02
03
0C
10
09
10
FA
FF
DE
FF
EC
07
15
14
EE
00
FE
10
F5
ED
FF
F4
05
F0
05
01
ED
F5
00
F2
EC
F4
FD
F2
0C
15
1C
12
FD
FC
19
FF
EA
FE
18
04
07
EB
04
F4
0D
FD
0B
16
F1
F6
E8
0A
F3
E9
E2
F5
00
F0
EC
10
0D
F4
0F
F6
EC
00
FB
E4
13
FC
02
10
00
F3
ED
F9
06
03
11
0F
EE
06
E9
F0
03
FA
F4
10
11
EB
14
0B
04
ED
EC
FF
EF
FF
F3
11
0C
EC
03
17
04
01
F0
0A
F8
E4
FB
00
F4
11
13
02
07
08
E7
ED
E9
F3
0A
08
FE
FE
E8
03
01
F8
DD
D1
E3
F4
EE
09
15
29
05
00
10
F9
14
F2
F1
1E
13
E1
EE
DF
FB
DF
0E
E2
F5
29
EB
E2
34
DE
0C
1F
08
E9
21
1F
E7
EC
F7
0F
0C
FF
0C
2D
01
10
17
02
13
21
1C
13
EF
00
EF
EE
F9
0F
F2
DE
F9
EC
E9
F9
01
01
1B
F7
16
EC
04
CC
FF
F4
28
E3
07
EC
0B
06
07
F0
18
00
FE
F2
DF
D9
1B
23
F3
FB
13
1F
01
04
F0
09
E4
DA
F6
E4
F1
05
2C
24
F6
01
23
FB
15
FC
DD
F0
03
EB
E9
1D
D5
F4
10
F7
09
0C
EB
FE
06
DB
09
16
DE
03
0D
0C
DE
E3
2B
1D
2C
1D
F1
11
F1
F0
D4
20
FE
02
E4
19
F6
FF
FC
12
04
02
D1
E3
10
F3
E7
EF
D2
FB
06
1C
E4
EE
FB
01
27
0D
F7
EB
09
EF
FD
25
FB
E9
F0
02
E9
E8
18
FC
EA
12
10
0F
0D
E1
00
F9
06
FE
FA
0C
F2
04
F9
F8
02
10
00
11
00
09
04
FD
F5
FA
F6
13
06
16
11
04
EC
09
0C
07
07
F2
DD
F3
D6
0F
08
FA
1F
0C
F1
F5
09
E6
FE
05
EA
15
F6
E2
EF
EE
FB
01
E1
0F
EF
13
07
FD
1D
17
FE
00
0C
EE
F8
E7
08
0C
0C
0F
08
FA
E9
0D
F4
FD
02
06
E9
07
0E
EB
F5
E8
E9
13
09
0D
F5
F6
FE
08
04
EE
F6
EC
12
14
FD
E7
EB
02
F0
05
0C
F3
15
0D
FD
19
FA
0E
EC
0B
FB
F0
0B
02
02
07
FD
FF
E7
E2
F0
EE
F0
17
FE
01
FE
11
DF
F4
F6
06
FC
10
FE
21
0C
0B
00
E6
0E
19
09
0A
E0
0A
05
E9
12
14
00
25
05
11
EA
ED
0C
F8
F7
F8
0C
08
E4
FB
02
02
F1
11
EF
0C
F8
ED
F3
FB
0E
F8
FC
FE
FD
F5
0E
0C
01
11
0C
11
FB
0F
FC
05
FA
F3
08
0C
FC
06
03
07
FD
04
0B
0B
FE
05
EC
04
E5
0A
04
00
09
F7
0C
0F
F5
EC
04
F7
F3
06
01
03
F6
F4
F7
FF
F3
F3
F9
F9
F5
05
00
09
FF
EF
03
F1
06
01
00
F6
FC
F9
FF
05
F9
FA
F7
F6
FC
F6
0B
03
0A
FA
FE
FA
F9
02
FC
04
F7
05
FB
0E
01
EF
FF
FC
F3
F4
02
05
FC
F2
05
F0
FB
FE
00
F0
09
01
01
03
01
F3
FC
EE
0A
00
0E
F5
FE
F8
FC
FD
FD
FC
FC
03
00
02
07
07
0F
0B
00
0A
04
F0
EA
05
F9
0D
F9
0A
07
F4
EC
F4
01
0D
FF
02
06
07
08
0F
06
FC
FB
FD
16
F4
01
08
03
F1
EC
F6
06
FB
0D
09
EB
0E
09
F2
F3
F1
F1
06
00
F9
F5
F3
11
FF
04
FB
08
04
09
03
F4
F8
FD
09
FC
F1
0B
EA
F8
CD
D1
F3
1C
3C
E9
F3
D0
DB
D1
02
DA
E8
02
FD
F9
F3
31
DC
D8
30
13
23
24
E3
F0
C8
0E
17
CD
DE
F3
13
01
10
05
2A
16
0A
09
01
E5
2A
FA
07
00
E6
16
18
24
1C
19
FE
01
13
0E
F4
F9
0E
1F
18
E0
FE
E8
02
E7
FB
08
27
15
00
11
02
F2
0A
ED
01
ED
EF
D8
F6
0B
06
EA
04
19
DC
D9
23
CA
CA
C5
E4
D3
02
F7
2D
E1
D6
CE
CF
12
E8
FA
01
FF
E9
51
02
FF
18
27
22
05
04
E6
09
05
DC
FA
07
09
3A
25
FC
C6
EB
DE
ED
0F
FB
FE
1B
DE
12
1E
17
03
FD
BD
1F
FC
F0
06
2F
F9
1A
07
F8
EC
25
28
3C
2F
FD
DA
E7
EB
F0
15
F1
0D
EE
0E
11
1B
15
0C
24
14
FC
F9
EC
0B
ED
F7
F0
EF
2C
DF
0B
07
FD
C6
F7
E5
EC
E8
D9
04
0B
24
F4
F2
08
FE
05
01
F2
F6
EC
04
FE
11
12
17
F3
0E
0E
ED
F6
07
1B
FB
F7
06
09
0E
0D
02
E4
15
06
FD
04
07
0B
FA
FF
18
11
1D
0D
0C
06
FA
0C
0F
F3
11
01
F1
F0
1B
E9
09
F8
EE
0F
18
13
FE
06
15
FC
0F
18
F8
04
F2
FD
0D
02
E8
14
11
F8
E8
F9
F4
F6
09
00
21
0D
DC
E8
EC
06
F5
F6
F3
11
F3
EA
FD
0F
F3
F1
08
EA
13
13
19
17
0F
F6
16
05
2A
04
F7
E7
00
00
03
16
F7
0A
00
FD
0E
0E
F5
0F
05
03
EE
02
FA
F5
FC
EE
04
13
ED
FB
11
15
1B
02
18
03
FF
16
FD
02
1A
0C
F3
06
0F
12
06
EE
EC
00
16
19
0C
09
E7
11
0C
07
0D
E9
FC
F1
0E
E1
E9
E8
0B
19
19
16
04
0B
0E
10
FB
FC
16
F3
00
F7
00
FD
09
01
EC
ED
F6
0B
FE
FD
F6
0D
F5
F3
EA
15
DB
13
1F
12
F6
05
15
E6
0B
F5
02
F4
DD
F9
1A
FB
EC
D5
E7
F7
FC
1B
11
01
10
12
FC
DC
D9
00
E7
C4
21
18
DE
16
F8
FF
2E
1F
0C
FB
14
11
F7
DE
1A
EA
E1
D3
0E
03
F0
E5
21
0D
14
FF
F6
F5
F3
04
07
25
01
D9
D6
F7
03
EC
12
FE
09
06
00
06
05
ED
DD
01
F0
F0
EB
1B
EB
1F
12
01
E6
EA
F6
0F
F1
FF
1E
00
06
E9
19
F3
F8
E6
08
EC
F6
0C
F5
24
17
F5
EA
DE
03
0C
0F
D9
0F
20
0B
1D
FC
E0
FD
11
E1
E7
11
F2
03
14
03
03
1A
07
E5
E4
E5
FA
14
13
19
1D
1E
DA
D7
00
12
05
07
D7
DF
FA
F2
E8
1C
E4
E6
E6
E7
FD
F7
19
11
0E
18
DF
E2
15
13
09
11
0B
0F
05
0D
F6
1B
E9
F5
FF
DF
E9
E8
E8
EA
F9
F8
F7
F9
FE
FE
F2
FA
13
EC
F8
F5
15
10
04
F2
EF
FB
0E
09
FD
E6
13
07
0B
EC
FD
0E
EB
E3
E4
ED
F0
05
EE
07
F6
07
E0
02
08
0C
F0
F9
F3
F6
0B
FD
06
F2
F6
0A
F9
06
E6
07
F5
F2
F6
07
0E
F4
0A
F4
F9
F6
02
EA
03
F8
0F
12
0A
FC
01
DF
FF
E5
01
01
0C
04
0D
0D
F8
EE
00
F5
F8
00
11
0E
FB
F5
14
10
EA
FD
EC
02
F7
FA
F3
F4
05
E5
F2
07
08
00
EF
05
0F
F2
F0
04
02
0F
07
0B
00
F5
FC
F5
FB
04
F4
F6
FA
08
05
02
FD
EB
0D
0D
0F
EB
12
07
FF
0A
F3
F7
01
0A
EA
01
E9
F1
F4
F6
09
12
FD
F8
03
01
15
00
FF
E5
08
09
09
03
FC
0A
F1
FB
E6
08
F2
06
03
00
F2
01
10
F0
ED
15
1B
09
0C
F9
FA
FD
07
11
E6
E9
EE
FB
F8
0E
0F
F9
FF
FB
06
11
F9
05
13
01
EC
11
F5
0E
F0
F0
F1
06
E5
F3
0C
FD
EE
10
13
0E
F4
E5
00
02
F6
12
04
EB
DE
03
F1
E2
F5
00
01
F0
10
F6
F2
11
FF
1E
EE
F9
E8
20
08
02
10
E0
E8
18
FF
0C
10
01
E7
F8
12
08
FD
02
F0
00
0C
0C
0F
0A
F9
FA
E3
FD
FF
EF
18
F5
E4
FF
01
F0
10
01
F4
FE
E3
03
01
03
F6
F5
07
E7
03
0B
01
E0
0D
EF
F0
0D
EE
05
09
0F
FB
1C
17
00
03
F6
E1
13
1F
06
18
EE
01
F2
08
FD
E7
FE
07
F3
FF
F6
14
E6
ED
F4
F4
EC
F4
08
FE
0C
10
E6
FF
0D
04
E3
F1
F4
1A
F2
F9
07
04
E4
F5
FF
FC
F1
F9
F4
F6
FE
02
F9
EE
0C
09
09
1C
01
08
E8
F7
10
F2
05
E4
F7
17
06
01
28
F7
FC
F8
E0
07
0D
0A
1B
28
F3
EF
D6
0D
0D
FA
17
DC
FB
01
09
15
F4
17
19
08
F2
0C
14
FB
23
D8
EC
FA
06
1A
06
0E
D9
E3
07
EF
FD
01
F9
15
0D
13
DD
DD
F4
0E
E5
ED
DB
EA
14
F8
F6
08
F8
F5
09
FC
1A
05
0F
0A
26
02
CF
F6
F4
E0
F0
19
0D
01
0D
23
E5
E9
D8
E6
07
0D
EF
01
F3
F3
F3
01
FB
E5
FF
01
F1
E3
02
10
E4
FE
E5
DB
0D
F2
D8
EF
F9
12
F8
EA
EE
00
1C
02
E2
F3
10
E2
EA
0F
F6
17
E4
16
24
0C
E1
FA
0B
E8
E3
D7
0D
11
F6
0D
F2
0E
D5
CC
CA
07
00
E9
F1
F0
F9
F7
0D
0A
F7
00
1F
09
ED
02
E5
0D
1A
0F
0F
20
01
F3
FF
0A
FD
EB
21
31
1B
1F
21
F3
F1
18
0A
0E
FA
E2
0A
F5
EE
1C
F7
08
E7
F3
FA
19
15
17
01
0A
1E
F1
F8
F4
18
E9
F5
00
03
1B
08
FE
0E
F4
E4
F8
E0
10
03
05
F2
FA
EB
0F
FC
EF
F0
19
F9
07
1B
1C
E9
F6
EA
FE
02
F8
0F
FE
07
F5
15
16
F7
EF
EF
E9
07
16
04
15
0F
14
FC
07
E2
CB
08
E7
03
CD
EA
E0
25
F4
DE
0C
EF
E4
0E
07
0F
0E
EF
E7
F6
E7
04
F0
0C
ED
17
0A
09
0D
14
0A
01
F7
16
F7
15
05
01
F2
EE
F1
F1
06
F9
ED
06
F7
F9
F9
0F
E1
D8
10
F4
F4
E6
03
10
F0
05
00
FB
15
FE
08
F7
FE
0A
FB
0B
1D
17
ED
F3
FE
E0
DC
10
EB
28
E0
DE
01
F7
E8
11
F0
F2
F4
E5
E1
12
EB
FC
D6
06
0C
01
12
09
DD
11
0C
0E
0C
F8
F5
EB
FB
00
E1
F0
DB
03
FC
18
08
0A
0E
E3
00
ED
0B
0E
00
EF
0D
02
E2
E0
F4
F3
F4
F9
05
05
FF
F1
02
0A
10
0D
10
0B
F5
FC
02
07
ED
08
EB
04
FF
05
F9
0A
10
F5
ED
FE
01
F7
05
F8
07
11
10
F8
E3
FD
F8
F1
15
FF
0A
EF
F2
05
FB
F2
02
06
00
0E
EF
E2
F9
10
0C
F5
10
0E
F6
0C
FC
FC
FE
F4
ED
F9
F7
FF
01
EF
F2
10
F4
FB
EF
F2
03
05
02
FB
F1
FB
0E
05
FF
FA
11
0A
FD
F2
11
F6
F6
01
F7
EE
EE
06
F9
0A
00
F1
EF
F7
14
EC
E9
08
04
F1
F3
13
F6
12
F7
EB
F1
0F
09
02
09
08
03
02
06
0A
FD
02
EF
02
03
09
00
0E
FD
F6
02
06
02
16
0B
FA
F1
01
ED
F4
10
FC
06
F7
EE
08
0C
E8
F5
FE
0D
F1
0E
16
EA
FE
FD
11
05
05
FE
FA
F4
06
F3
F5
FA
F0
0B
0E
11
0B
00
0F
05
FF
EF
05
FE
04
02
F0
F4
EE
F9
08
08
18
F3
12
14
EA
ED
0B
F0
07
F2
F4
ED
0E
FA
DF
F4
03
22
0A
03
F6
15
FF
FA
EF
03
0F
F0
FB
09
F4
13
07
07
E9
FE
06
17
F6
DB
0B
09
F1
EE
12
01
F4
FF
0A
F6
E5
F9
F5
09
ED
F5
E9
E6
17
0E
04
08
0D
03
FD
E4
DE
F5
01
13
F5
EC
E7
ED
15
F5
F6
FA
FF
FC
E8
19
02
FC
04
15
0A
EA
FA
FC
04
F3
1B
05
0C
03
08
FB
F4
E3
0F
09
04
0F
FF
FD
07
1B
03
F6
10
07
F6
03
E8
FA
F0
FD
FA
0B
E6
1A
FD
FA
13
F7
05
04
F5
04
F9
0D
EA
F8
F1
FA
0F
0A
EC
12
19
14
08
15
13
20
03
00
1C
0E
19
0A
01
F4
10
0B
03
04
18
0B
F4
E2
0D
F4
E7
0E
F6
03
F3
19
05
F4
0F
15
11
10
E8
EB
15
FF
0E
14
F8
F4
15
FB
EC
1A
03
FD
0A
FA
FA
07
02
10
03
00
0D
05
04
FC
FD
EA
F1
F8
0E
10
17
0D
02
FC
FD
FE
01
18
0C
02
F9
04
03
FB
FB
F7
FA
FA
0B
F8
02
0B
00
FF
03
08
00
03
07
FD
0E
03
0B
04
F7
F4
FF
FF
07
F7
0C
0A
F9
13
0A
0C
0B
0C
03
F5
F5
0B
0A
FD
FE
F5
F7
04
F5
00
12
09
F9
08
FC
0E
13
0D
0F
F6
F8
FC
07
0F
02
FB
05
FB
06
F0
03
0B
13
07
0E
09
F5
01
F8
F5
E3
F3
E4
F7
FE
12
04
06
01
0F
FE
07
FC
FD
F6
F5
09
F7
04
01
00
05
EF
FF
F4
F3
0E
02
0F
FB
F5
EE
FF
F9
FB
07
19
00
01
FB
0B
FE
07
F1
09
1F
05
F8
FF
04
02
05
07
0E
07
0A
F6
FB
07
F9
FF
FC
F1
07
F8
03
FA
11
11
FC
01
06
0C
08
05
0D
F1
01
09
ED
FD
F6
09
FB
F7
06
02
01
06
19
09
10
12
16
F4
03
F4
FF
ED
F9
F9
E5
E8
02
F5
EC
FC
F5
0A
12
F8
F3
EF
00
02
17
FA
17
06
08
16
1E
08
0B
EB
11
FC
14
04
13
0C
EE
09
18
07
0D
FD
F3
00
E5
1A
FF
F9
EE
EB
08
F9
FB
12
F0
0F
EE
12
F5
08
17
00
04
F0
01
EE
0E
FA
12
F6
F7
F0
E5
03
02
0F
FB
17
F9
F6
10
EE
FC
00
FE
FA
E6
11
F1
0B
E3
01
E8
EB
F2
E3
F3
F0
FB
F7
06
FE
E9
FD
07
F0
0C
07
0D
EE
EB
F3
FF
18
F4
E5
FE
03
EE
F0
E8
0D
00
E9
F7
F1
0A
E7
F1
DE
F0
F6
FA
03
EF
1D
00
FD
02
00
ED
ED
04
FE
0B
F3
06
0D
02
00
ED
F5
0C
07
0C
16
F4
02
13
F4
1A
07
F5
EB
0D
0D
F1
FE
02
04
10
03
EC
1C
1D
F8
0B
FF
FA
1A
11
ED
12
F4
06
0F
FB
10
FD
ED
16
0D
16
01
F4
EC
14
16
F4
0B
FE
F1
0C
F2
F8
11
0E
E3
03
FC
ED
E9
F3
E4
ED
FD
01
F3
02
07
11
FC
FE
FF
06
0D
F1
F4
F5
00
0E
EB
F3
EA
11
05
15
ED
FB
0D
EB
E8
EE
F9
EE
04
0E
0D
02
F3
FE
05
0E
ED
F7
FD
0A
FA
F8
F7
FF
FC
10
0C
FD
F1
E9
F9
FA
0F
02
F8
FC
F4
18
FD
F7
0B
E7
F9
08
13
15
FA
F1
01
F6
14
FC
F8
F0
14
0A
ED
03
04
F8
0A
F0
F8
14
11
0B
FA
0F
F3
ED
EA
07
04
01
1C
FF
15
EF
F2
05
06
06
18
F3
0F
02
02
F6
F1
0E
09
07
0B
E6
16
F2
EB
1A
F6
F8
FF
EF
0C
18
11
F6
F0
0D
FD
FF
EA
19
FB
FA
FD
EF
0A
E2
FD
EF
0D
EF
14
E8
E3
0A
F2
15
14
FB
15
FC
15
E4
03
00
04
05
EE
0B
FE
06
02
FD
06
FD
F6
00
FA
00
FC
F4
08
FC
F8
F1
01
04
EE
EE
0B
F6
FD
FE
0A
F8
0E
F5
06
FA
03
FD
00
08
F7
09
F7
FE
0A
ED
F4
F4
02
05
F6
FD
03
F6
FD
00
F3
F9
FB
05
F8
FB
F7
06
01
F0
01
FA
01
F5
F6
FA
09
EA
10
08
06
01
FC
F9
F4
EC
FE
03
F5
0D
F2
01
FD
0D
F5
FC
03
FF
F1
F8
FF
F6
FD
F2
07
FF
F4
06
02
F3
FE
10
F2
FF
0B
F1
ED
FE
F6
0F
FE
F6
FE
FD
09
08
FA
FF
06
F8
00
F9
06
FA
09
07
F1
FD
FD
F0
F3
0A
09
F7
FE
04
0B
10
FF
13
FB
FC
09
F9
F0
0C
06
01
08
04
FC
FC
04
FA
0E
0B
F9
06
FE
09
EC
00
00
0A
03
03
FA
FE
07
09
0A
F7
0B
FB
FD
0B
09
F7
FE
0A
FA
10
00
FF
F7
00
00
05
EE
FD
10
DF
08
1B
24
F2
1A
28
F3
05
10
EF
E8
0F
15
EB
DF
DC
E7
18
F0
06
FE
F0
2D
EF
19
EF
34
0B
0E
0F
01
F3
F7
EE
F6
06
FA
01
FE
0B
1A
E4
14
06
EB
0F
09
15
23
0D
04
E2
E0
05
EF
03
05
19
FA
FA
00
12
FB
00
4E
F5
24
F2
13
E0
DB
15
1E
10
03
05
F0
30
EF
E0
F2
F0
F1
DE
27
10
0C
EF
07
13
EF
23
FB
EB
DB
E3
10
EA
DF
EA
ED
E1
E6
21
FA
E8
EE
21
E7
0F
02
D2
09
11
24
1E
06
0B
E0
2F
F0
22
E9
C8
29
19
FA
09
E1
F7
1F
25
F6
0A
41
27
F0
D3
FD
0F
CF
1F
E5
0A
F3
2E
F7
E6
1D
01
23
09
F8
E9
ED
17
25
E4
EC
1F
31
09
08
1E
1D
E1
E4
01
1E
F8
F5
03
EE
1F
00
15
0F
06
E5
E6
FB
21
E5
2E
1E
D4
20
EC
F4
09
F2
E5
F0
0A
F5
02
EA
15
FE
0D
13
F1
02
06
EF
EC
00
0B
15
F9
FA
10
FD
08
19
00
14
12
03
0A
03
FD
15
02
01
19
1E
F3
FE
F1
F1
06
F9
F8
11
0B
FE
14
0C
08
0B
F7
FE
EB
F0
0F
0F
10
00
FA
08
FA
03
FF
FC
F5
F2
FC
FD
FC
0D
0B
03
08
02
02
F9
00
1B
FC
0B
FE
0F
F6
F6
05
06
EF
04
01
04
17
EF
11
0E
ED
FD
09
EE
15
EE
07
00
F7
F1
05
F2
F9
06
F0
05
EC
E9
0A
F3
0D
F8
FB
08
F2
EA
05
0E
0C
17
03
03
0B
FF
04
EC
01
0F
15
F2
0E
1E
FB
02
FD
0F
07
19
13
EA
FC
EC
EF
E4
05
07
ED
0D
01
06
11
11
03
03
FC
EF
F5
F5
FC
F7
09
12
ED
EE
FA
09
10
EC
FA
FC
0F
0A
06
0C
FA
14
F4
ED
0F
1C
14
0B
09
F9
F0
FC
02
F6
F7
FE
08
F5
06
06
06
FB
09
FC
05
F8
FB
00
F8
07
04
11
FC
02
FA
02
04
11
04
05
07
08
10
0A
F6
F0
02
04
F9
02
0C
16
10
F6
10
04
FC
F3
00
07
0B
08
F4
03
0B
0B
F7
0C
05
07
F2
FF
FC
FC
FF
00
0B
0F
0D
00
F8
FE
08
F7
06
05
FB
F8
F1
02
0E
0B
FC
E9
FD
FE
FF
0A
09
00
08
FE
FF
02
F0
ED
0D
0F
F1
F6
FC
F7
F2
FD
FA
0D
F2
FC
F7
F1
ED
EA
0F
FF
F8
08
F9
FB
01
FF
05
0E
03
0F
08
F3
F8
FF
12
FE
04
F8
07
07
06
F1
FC
0D
FB
FF
F0
F3
12
09
06
EC
F1
0A
FC
F8
FC
12
0A
0D
0F
0A
05
FB
03
FE
0F
0D
FE
F2
0E
FD
01
FD
F8
F9
0D
0E
07
FC
FC
08
0C
0F
0C
FD
FB
0D
FA
F8
FE
FE
05
FA
03
F5
09
08
ED
03
0B
0F
E0
F0
F9
11
F7
FD
FF
EA
F0
03
05
10
F7
11
16
EA
00
F4
FF
E6
0A
E5
01
F1
12
F4
09
F1
04
FC
03
0E
13
05
E5
DA
0D
0F
0D
0A
F6
09
0A
0C
FF
0A
EF
F4
FF
1D
10
FA
EF
0C
F9
03
F7
13
06
FD
F4
F1
08
ED
11
0E
EF
F2
F3
FB
EF
12
F7
02
0B
07
0F
F3
05
FB
07
F6
17
10
FB
02
05
EA
EB
0D
0C
FC
12
F3
06
00
10
05
F4
1A
04
E6
E8
1B
09
16
07
F8
0A
ED
02
F3
0C
0C
E3
0A
FB
FA
FA
F3
FA
0A
FB
0A
01
11
FF
0D
11
F2
09
04
F9
F3
F6
08
F7
FB
02
EF
FE
DF
02
10
09
13
0E
F1
05
00
16
FE
FF
FB
05
ED
14
10
FF
F5
FB
10
EE
FA
FD
15
F3
FC
F3
FA
12
F3
08
09
F9
FA
03
05
10
FB
FB
17
F6
F5
FB
E7
14
0B
E6
02
FB
08
00
FB
02
F2
F0
06
04
FE
0B
F0
EF
FD
F5
08
FF
EC
03
01
0F
04
EE
0E
00
08
F2
01
08
FC
04
01
00
F5
F5
F2
FE
00
0C
F7
FF
0B
F4
F8
FD
0E
06
FA
08
18
00
F1
03
F1
0D
FC
FD
F5
00
F6
F4
EE
FD
F4
FA
09
01
0A
FA
FA
F2
FA
FC
F3
FC
09
F8
06
F3
02
F3
07
F6
08
FB
0E
F1
F0
03
F3
01
F2
FB
FF
FA
06
F4
0A
FB
F4
FC
05
EE
ED
01
F1
11
FF
00
EC
02
FE
01
0D
06
F1
0E
F9
10
F4
F3
16
09
F9
EE
04
F8
03
09
0A
FD
0E
F8
F5
0E
EE
FF
FF
FF
F8
F2
06
F0
11
01
F4
04
FA
F5
0B
FE
02
F2
F6
E5
10
FB
13
01
FE
F3
10
FF
FA
0C
05
F8
F5
F3
05
04
F4
F4
14
01
0A
F2
FE
04
FF
10
FF
00
05
FD
F7
F4
FC
02
F3
02
EE
14
03
F0
FC
09
0B
16
12
1B
18
10
F2
FD
16
FE
E4
FC
FC
EB
E6
FA
0E
05
DA
E4
FF
FF
01
0E
FF
26
02
E8
EC
F3
EE
13
11
05
1B
FC
13
FD
F8
DD
EC
00
ED
E0
0A
04
08
27
E4
FD
01
FD
0A
FF
0E
F4
E9
11
22
11
DE
03
0D
1D
1C
F4
FD
FD
0C
DA
02
F5
F4
00
16
F4
F9
FD
FF
F4
0D
FD
FF
F2
09
1E
FB
F8
05
1A
F4
11
F6
F9
ED
E2
0E
EA
09
05
DF
FE
00
08
22
ED
16
F5
15
FA
FD
E6
00
EA
EF
12
00
EF
FB
10
08
F7
1F
F4
0F
16
00
E8
FC
E4
EA
F0
EE
DB
EA
F4
00
FE
CE
FA
13
FB
1C
F2
0E
1A
F1
EE
EF
D4
23
F6
05
E3
E9
00
F1
1B
10
21
F9
EC
07
FD
FB
1F
FD
0B
14
1D
02
FF
15
FB
28
0D
EA
F6
1D
FE
F5
04
FB
F1
0A
00
09
04
03
08
FE
0E
F3
0B
0F
0D
FB
04
07
0B
00
F8
02
F8
0C
0A
FB
FD
0B
FA
01
F9
04
FD
F4
F6
05
02
01
03
07
0C
F4
EE
05
FA
08
0A
F5
05
09
F9
FA
09
04
02
F8
FE
F7
09
03
F9
FB
01
FC
FD
FB
F7
04
11
10
F7
FD
F6
0D
0C
FC
FE
0B
09
FA
00
FC
F6
FB
F8
08
0F
05
FF
06
08
EF
FF
FA
08
0A
06
07
F2
F3
FB
FC
F9
02
0E
11
09
00
01
EC
04
0C
03
FF
03
F6
01
04
0F
0A
17
FE
09
F7
03
11
06
FB
01
FA
02
FA
06
FF
FC
FA
F8
FB
0C
0C
FE
FA
06
F7
08
07
F5
01
F7
09
F5
0F
F8
F7
F4
F7
01
F8
0A
F6
FF
FE
03
01
F5
0C
07
02
04
FD
02
03
01
09
F6
07
F8
11
FB
F6
03
10
08
00
02
06
FA
06
0C
FA
F1
FA
04
FA
EE
00
FD
11
F5
16
FB
FC
04
04
0B
F0
15
05
FE
F6
0F
FC
FF
FE
F7
08
F5
00
EA
FD
F6
F8
FE
F3
0F
EF
04
01
F9
FC
EF
EA
03
FE
F7
F1
04
00
09
E8
05
F1
0F
FD
E7
FA
FA
0A
F9
EB
07
F4
0E
EE
FD
03
FF
04
EF
F6
F5
EC
07
FA
05
13
FF
06
F6
0E
05
E8
F5
E4
04
F7
F9
0A
07
04
0A
0A
FE
08
0D
0D
ED
13
02
FA
F1
09
03
0B
F8
0A
EB
0B
05
F5
F4
06
F0
07
03
EF
03
EB
FA
03
04
F6
FE
F3
F2
03
01
03
08
EC
E8
EF
F1
11
0F
F7
ED
F6
F7
08
EF
02
EE
10
F4
00
0F
EC
FA
0D
FF
F3
F3
F4
FD
F5
0E
02
F9
0D
F6
0A
EE
09
EF
0A
FF
FA
04
02
F7
0C
F6
F4
FF
F8
F9
08
02
EC
04
0B
14
FE
FA
FB
03
F8
F3
0B
14
0D
0C
F7
00
E7
04
05
15
F3
11
16
04
F8
0E
00
FE
0B
0B
06
17
05
FE
E9
14
F3
00
F7
03
F2
F1
EF
01
EA
FF
FA
08
05
01
FB
09
09
0B
06
F5
F9
F9
02
18
08
06
17
0F
01
07
03
F2
F4
F4
F8
04
F7
F3
FC
05
03
0A
06
FF
EE
FE
F2
EB
07
17
F2
F5
FC
0E
F8
13
11
F7
01
0D
F5
F7
08
F0
EF
FD
F1
00
01
F9
14
F0
0D
06
07
09
08
EE
07
17
E4
EF
02
FC
FA
F2
00
F2
FE
05
02
07
F4
0A
04
0C
FA
ED
09
0B
02
EC
FF
F6
02
12
0B
F1
10
FC
F5
F7
E9
FB
FF
FA
EB
05
0B
EC
EC
02
F9
02
E9
08
15
11
FD
0A
1B
EF
09
04
EA
0B
FB
F1
F8
F2
02
03
0D
00
11
FD
FC
07
FB
F6
F7
F1
EB
15
E7
0A
ED
0E
FB
19
08
01
FC
03
EC
FE
01
E4
F8
02
15
EE
1A
0F
10
F5
EC
F7
23
01
D8
24
F4
12
EA
02
EC
EE
02
1E
F5
F3
E9
E9
FC
E0
E9
F2
D2
EC
08
FB
24
DA
FC
E5
EA
F2
03
12
FB
10
0F
19
1A
0A
E6
06
01
17
00
F3
ED
0C
16
11
1B
1F
EB
0B
09
03
DE
EA
F7
ED
E1
DE
E7
0D
E7
11
16
10
EE
0F
0D
15
17
FE
0F
F0
E5
11
0C
E3
E8
29
EC
1B
1F
F2
EA
FE
02
EA
E6
FE
FA
12
08
21
F2
FA
07
1C
0D
1F
1A
2A
1B
2C
0F
17
EC
E9
F2
FA
14
EB
F0
E3
F6
F1
04
E3
F4
15
1A
08
FB
F6
E0
F9
0A
00
21
E0
E6
DD
EB
05
0D
D6
FA
F4
26
10
F2
1A
0F
27
12
F1
F5
12
0F
00
03
0C
F6
00
EC
FC
0D
FA
02
EB
F8
E8
E3
F2
FF
F9
00
E7
0D
13
07
04
DD
E5
17
0D
08
F3
21
E6
F1
03
15
E2
17
16
0C
D0
E0
F4
0C
08
FB
2E
13
E2
D8
13
FF
EF
FD
12
E9
E6
1E
F3
0E
F6
0A
F1
02
02
15
FF
D9
0B
F6
09
DE
02
12
07
0D
08
F0
FC
E1
16
19
EA
FC
04
FD
0B
EF
16
FC
FF
EF
03
00
F1
09
FE
0F
E7
EC
E7
FD
E4
19
08
0C
E7
F7
FD
FB
F6
F0
11
06
16
E1
E9
11
21
DC
FC
F4
1F
1F
0F
E3
1A
01
EA
10
DB
08
EB
08
11
20
0D
EF
1C
0A
EC
EF
04
F3
DD
E4
1D
FD
08
FC
F6
19
07
0A
FE
16
ED
D6
EB
1F
EE
EC
F7
14
FC
01
F4
18
E3
1B
1A
EA
F2
FC
DF
FA
F1
22
FD
E4
F5
CA
E7
11
10
FA
FC
10
08
14
F9
27
F4
14
09
0D
E3
F3
F0
22
F8
03
04
F6
F9
11
EA
04
1C
15
07
EB
FA
E6
04
07
EB
0A
FC
00
00
04
E0
01
0C
0A
1E
E8
F8
C2
F0
06
26
F3
0B
0D
03
F2
0A
09
0B
FE
0E
06
F2
07
F2
FB
EF
E3
10
0B
03
F3
F8
F8
F2
13
18
0E
FE
FE
FE
F1
18
F6
21
05
0D
12
07
00
FD
F6
F7
00
FD
EA
13
05
01
06
F2
00
FC
EF
E9
16
11
FE
F3
FD
09
EA
05
EC
0E
F1
EF
F5
04
ED
07
19
FD
07
1B
ED
EB
0E
15
11
FE
10
07
10
EE
F1
16
E3
EE
0E
0C
F3
0A
09
FE
F7
F2
EF
03
07
00
EE
0D
03
04
F1
00
03
06
12
F9
E2
EF
04
F2
0E
F3
13
09
F5
EE
00
F4
F4
FC
EB
0D
E6
03
F8
F8
FF
01
F7
00
12
09
F4
EF
0A
0B
FB
E6
F4
0B
06
00
E9
00
02
FE
13
F8
19
05
0B
08
0C
1C
FC
FC
0B
FC
F7
14
14
F8
09
07
F5
F8
0A
0B
F1
0F
06
DD
11
07
F6
ED
DD
F4
09
F9
14
05
11
E4
0B
FD
F0
03
15
16
FB
FC
F9
03
05
FB
09
05
01
08
00
F8
00
03
F8
FF
0C
0C
0D
02
00
FE
FA
FF
07
03
FF
FA
01
FE
FD
06
02
FE
08
06
06
0A
02
08
FE
08
0A
06
08
FD
FB
01
0B
0E
05
00
FF
F9
01
FB
FE
02
04
FC
FC
00
0D
0E
0B
FB
00
FC
06
08
09
05
04
F8
00
FE
F4
F6
0D
03
FB
0D
FA
02
F7
07
FC
FD
04
FE
06
0B
09
06
02
FA
00
FC
08
05
FB
0D
08
0C
08
05
FA
00
F6
EE
F1
FA
02
05
04
00
F5
01
0C
FB
F8
0A
07
FB
02
FF
FF
FE
FA
06
FB
FC
04
F7
F2
05
0B
04
F7
07
FE
06
0A
07
FC
FF
FD
00
03
FD
FF
0B
06
0D
0E
01
FB
0D
07
0A
FD
03
0C
FF
08
F7
02
FD
0C
03
0A
05
FF
01
FC
FA
F6
03
03
03
0A
02
06
05
F8
FF
FE
01
FF
01
F4
03
05
0C
04
08
06
03
03
01
FB
FD
00
FE
0C
FB
02
FC
FC
FC
0C
08
F8
F7
00
FA
00
01
F7
05
FE
F3
F9
0C
FB
FA
FC
FE
FB
F6
01
02
FF
03
09
FB
FD
F7
FC
FD
FF
FC
01
0D
0B
01
07
F7
05
F7
FB
01
FA
FD
04
FC
FC
FA
FE
FD
01
FF
07
F7
FA
01
03
09
02
FC
07
04
FA
06
04
F8
00
02
F9
07
FA
01
04
F9
0B
02
01
02
01
08
FE
0B
04
05
F4
F7
FA
00
0B
09
01
FA
00
06
09
03
01
FA
06
04
FE
0C
08
03
00
FE
F6
02
FF
F5
F4
09
FA
FF
02
03
FF
FC
00
F8
FC
01
03
EF
FE
FD
0A
0A
FB
EC
04
FF
0B
09
FA
0A
FE
F3
01
03
F8
FF
03
04
FC
FD
FC
0B
FD
13
00
F7
F6
FD
00
F9
0C
0A
0C
04
F7
03
02
FC
FC
08
F3
FF
00
FE
F5
FD
08
06
EF
16
FF
02
FD
E1
02
E8
E6
0C
05
EF
ED
09
FE
E7
E9
EF
F2
FF
FD
E8
09
0D
E1
FF
F6
05
10
0A
08
04
FE
F1
EF
12
E6
06
F0
16
0B
FC
04
ED
09
F3
07
FF
F5
F3
EF
01
03
EA
F4
07
0A
0B
17
F1
E4
05
EE
FD
0E
13
FD
ED
F7
14
FD
EA
F7
FF
EF
EF
FA
06
F5
FC
0A
EA
EE
F3
0D
02
F6
F2
08
ED
FB
FA
0B
11
F6
02
FE
EA
F5
01
F7
0D
EE
0C
16
EF
0A
01
FB
19
0C
0B
F4
11
05
04
F0
18
07
12
0B
10
F2
F0
08
08
04
0B
12
EA
07
09
FB
FD
F8
0A
FF
FC
F8
F5
17
15
0B
0B
09
0C
0F
03
05
F6
F8
06
03
1C
0A
FA
12
F1
03
F9
F1
07
01
05
F0
18
05
11
ED
14
05
FF
02
EF
F4
F9
F0
01
03
05
EB
F1
F1
EB
06
06
EE
FA
FB
F9
F3
0E
08
F1
0C
0D
14
04
FC
EC
E8
F7
05
1D
DB
FF
F6
15
05
ED
1A
EB
FC
E5
08
16
0E
F9
F2
27
07
F0
1D
2E
05
FC
F4
EF
11
E3
20
ED
17
1B
EF
F5
F0
F7
F5
DB
F3
F9
1E
EA
05
08
FE
0E
05
F4
FF
0A
F6
21
EE
19
14
02
FD
20
FB
10
20
FC
EF
0E
18
12
EA
03
0E
FB
1D
F4
14
0D
10
F1
FD
00
16
F5
FB
06
F8
F5
0E
FF
ED
F8
F6
F0
01
FE
EB
F1
E3
FD
25
08
E4
EE
0E
12
E5
12
1B
15
21
09
EE
F3
FB
F5
02
F0
06
06
FA
17
F2
13
1D
E3
E2
0F
10
04
0F
0D
09
15
18
D7
03
E0
1B
F5
FA
D7
FE
DB
F3
F0
16
1F
16
11
12
EA
F5
0A
EA
18
1C
1C
08
1F
FC
0A
F3
02
E8
FD
F4
F0
1A
EC
06
E5
F0
18
0B
07
E7
10
1A
FE
04
1F
18
04
21
1B
0D
F3
FE
01
00
F7
03
ED
F4
EF
02
07
0D
FF
08
E6
01
02
F5
0F
09
FD
F3
F7
F2
02
03
0D
F1
FE
FD
F6
F7
FD
EC
EF
0F
0B
FA
11
FE
F4
10
FF
F2
FE
0B
F4
FF
FB
F8
FC
0A
07
FB
08
EE
F0
F7
04
0E
FB
FC
04
F8
01
0A
01
F8
F9
F2
E9
F4
07
0B
F1
EA
F8
0F
F5
EF
FB
0F
FF
F7
08
09
FE
10
F9
F9
0A
06
FF
0F
FA
F4
10
F7
F9
01
FC
FF
0A
08
EA
F2
E0
17
FD
FC
F5
04
0A
0A
0A
0C
F4
03
F6
FE
03
09
09
F8
FE
09
FC
0A
F1
09
06
07
F1
F8
FF
FE
06
0A
F9
F8
0F
F5
FE
FC
00
0F
FD
00
02
FC
00
0C
08
00
EB
FE
0B
09
F2
02
00
FF
F5
FF
FC
03
F1
00
F6
F1
F6
02
05
04
06
FB
F7
02
02
02
09
03
F4
11
0D
FA
F7
FF
05
F5
F5
05
00
FC
05
04
06
08
00
02
05
FD
04
06
F8
06
00
FF
08
02
00
FD
04
FB
FE
00
06
05
FC
00
FC
08
05
06
FD
FA
FF
05
F8
FF
0A
04
07
03
FF
FD
FE
03
02
0B
FD
07
FE
F7
01
01
00
03
02
01
02
00
01
FD
FF
FE
FF
01
07
04
FE
04
08
03
FA
04
FF
03
02
04
FD
00
FB
FE
05
02
08
08
FF
06
FD
02
02
09
07
05
FC
0A
06
03
09
01
04
03
05
01
04
FF
FC
FA
FC
FE
02
0A
07
08
06
04
FE
0D
FE
FC
FE
08
06
04
07
F9
F8
03
02
01
FD
0A
FC
06
02
FD
05
05
FA
FC
02
FB
01
08
01
FD
04
01
03
03
04
01
08
07
04
FE
06
09
FF
01
FD
FD
04
FF
FF
06
FF
FB
02
03
FB
00
FB
06
06
04
05
FA
FE
07
05
FE
FC
FC
04
07
FD
01
F8
FD
FE
F4
07
00
12
08
04
20
04
0E
16
E6
0D
F7
EA
0D
E7
E9
EB
15
08
00
11
11
F4
F3
0F
14
00
1B
F0
1B
27
1B
06
10
19
E1
FC
00
F9
F6
FB
EF
D7
05
0C
F0
E6
F4
F2
DB
17
0C
12
E6
E9
12
F2
DF
F3
FD
F6
F8
19
F2
0A
10
00
0D
07
15
FC
08
EF
09
16
05
0D
FD
E8
13
13
07
06
E4
F8
D5
F1
16
F6
23
F9
EF
E0
05
FA
0B
11
17
DE
F4
0E
1B
0E
06
E2
17
F5
12
02
05
0A
19
F1
0F
0F
03
05
04
12
EF
03
E5
FD
E9
15
24
0A
08
00
DC
DE
12
FA
10
F0
DA
EB
EB
D5
CE
F0
FB
15
F9
D3
D8
02
10
28
00
08
05
F7
F4
EE
00
08
0C
D7
F1
14
13
11
F1
05
F4
1C
1D
F2
0C
12
FE
E3
15
02
F8
03
0D
1A
E8
01
F2
EA
F0
14
F6
FD
07
F3
EF
ED
E3
EC
E8
DF
FF
F4
0E
04
03
EC
EE
EC
15
06
F9
F5
F2
EC
1F
1E
0F
18
26
19
FE
03
EF
FF
05
06
1D
1C
FD
0A
FB
08
FF
F3
20
04
FB
27
F4
F3
EF
EB
E4
0B
E1
F1
E8
FF
FA
0A
F9
FB
12
F5
EB
F9
F7
04
29
FF
08
07
09
EC
F7
EA
06
F9
0E
EB
01
F7
F1
FB
1F
11
E6
F7
0D
0E
E6
F5
F3
03
04
07
F7
F9
19
F4
F7
E4
E6
09
03
11
1C
E6
E2
EE
EE
ED
E9
FF
12
24
2A
16
F4
17
F2
F8
04
11
07
F3
0B
04
1C
FC
FD
01
01
12
00
1F
F9
E1
F0
06
1C
F6
D9
02
14
FF
03
25
12
06
DD
DE
FC
03
0F
05
EF
10
F5
EE
0C
1B
09
04
F6
FE
F7
FC
05
F1
F3
12
F9
07
FA
03
FA
E1
FA
FB
FF
13
F7
00
EB
F5
25
04
0C
15
05
08
F9
03
EF
13
05
01
DF
0B
08
F1
0B
18
0C
F4
FD
F6
EB
F9
F2
18
0C
FF
E5
01
F8
DB
13
0D
0D
1E
D8
E8
11
0D
F9
F6
EF
12
07
F8
F9
07
DC
0A
12
F0
0D
08
FB
F5
F4
DE
F8
09
FC
0A
EE
FC
1D
1A
0E
F7
FB
F1
03
09
FD
FA
10
FE
FD
06
FC
FD
05
16
0B
0A
FB
0D
EE
EA
09
16
F2
0F
0D
E6
F5
00
00
0F
FD
0D
EE
F6
F6
06
1B
0D
FA
08
FA
EB
16
06
02
01
0D
E3
11
05
FC
EA
07
14
10
F2
11
FF
FE
FB
22
FE
FC
ED
0F
EC
F7
F9
0C
E7
EA
F4
FA
E7
09
FA
08
09
01
EC
F8
0E
F7
FE
F5
04
0B
0A
10
02
FF
FE
EF
0B
F1
F6
F6
DA
F5
04
FB
0A
03
FC
F0
F2
0F
F3
E9
FF
13
13
EE
F6
F4
E3
0B
01
F3
FF
0E
E7
F3
14
F5
FE
08
F4
F7
ED
EE
E6
FB
00
10
F7
EF
FB
F6
F7
FC
D7
08
09
01
FA
FC
18
10
0A
FC
0E
01
F6
03
EF
0A
F6
1F
0F
F9
FA
F3
F2
FE
EF
0B
F1
EE
E7
EE
EA
EE
1C
FC
E6
ED
EE
02
13
0F
FD
02
EF
FF
F6
FC
F5
F8
04
26
0D
0B
12
1F
0B
FB
EA
0B
EB
E6
E6
F8
2A
11
FD
FB
17
0B
0C
F6
16
0A
F0
F8
EC
20
0D
00
04
FE
E8
14
00
FB
08
EC
07
1E
0A
E5
12
03
F9
14
13
18
14
F7
F5
1C
08
0B
F7
D9
0F
FD
EA
09
E8
00
0D
04
13
F8
01
F9
1D
15
EE
E3
FB
03
FB
12
07
FB
F4
E9
F2
E2
0D
17
15
16
12
0F
F5
19
17
0C
F0
02
E3
1C
DD
01
10
EA
24
1B
12
15
F9
FE
12
03
EC
04
F4
FA
05
1C
ED
04
01
EF
02
02
EA
04
17
EE
0F
EF
00
05
03
03
04
0C
19
0C
15
28
E5
10
1E
D9
DF
F7
1B
03
0F
D8
DF
EA
02
E2
DE
F3
03
14
08
19
03
F4
03
F6
21
F3
E8
F7
E9
E7
EE
FA
F6
EA
DC
EE
E5
EB
08
15
09
19
01
01
F9
FC
05
07
EF
F7
C7
1F
04
FE
ED
13
01
06
EB
F3
F0
F0
EE
DD
12
E8
00
F3
FD
02
19
FC
FE
1C
F0
01
0E
F9
E5
05
F7
D2
E5
F7
19
E9
D9
17
19
0F
EA
FE
F8
DC
10
E4
FD
F0
16
F4
F3
09
20
EF
0F
FB
F0
E8
DE
12
0D
EF
DA
17
FF
EB
FA
FB
02
E7
EE
F0
F3
02
0C
03
13
E3
E5
F7
EB
F7
EF
18
E2
1D
1D
17
12
0C
16
10
F5
09
F5
F3
06
16
06
E8
0D
07
16
E6
06
FB
12
FE
F6
F1
10
EA
F9
21
DE
F9
D6
F7
0B
06
12
ED
1D
EC
06
EA
00
FB
06
E8
06
FD
D8
11
19
FC
E2
1B
F3
19
EF
21
DB
F8
24
03
FF
FD
05
00
FC
FE
02
05
FF
FE
FD
0B
07
01
FE
02
06
FE
FE
02
01
FD
01
03
05
FE
F7
F9
03
01
FC
07
FE
02
07
04
05
F7
01
04
07
02
03
FF
04
FE
01
05
FC
FD
05
05
F7
07
01
01
FF
04
01
FF
07
01
FC
05
00
00
FA
FB
01
03
02
05
FF
04
04
00
FB
FF
02
FE
F6
FA
00
01
01
03
FA
FE
05
FD
06
FC
06
04
FC
07
06
06
05
FF
00
F7
03
01
02
FE
F9
01
02
06
03
07
02
FB
04
FE
06
FD
FE
01
04
02
FA
01
FA
00
FF
FA
04
04
FD
01
FD
FF
FB
FB
01
01
FD
FE
F9
08
FE
02
FA
F8
FD
03
FB
FF
FC
07
04
03
0A
F6
FC
FE
F8
FD
FF
00
FE
FF
07
02
07
06
05
07
FF
FE
FE
07
01
05
00
FD
09
06
FE
FA
FE
06
FF
01
05
FE
FF
FE
FC
F8
04
F2
E9
F1
06
0E
09
F1
F1
F9
ED
F1
10
F0
05
FA
E3
E7
EA
EF
F7
EC
EC
07
EF
FB
13
F3
FF
EE
E7
0A
11
F6
11
00
FA
F6
12
F9
1D
FC
07
FC
FF
F1
11
F9
12
FD
EF
F9
02
13
E9
F0
12
FD
F4
06
F7
EE
03
E9
01
0F
FD
04
ED
19
FA
0D
FC
01
06
02
05
05
01
0D
E8
F7
0A
FD
FA
F5
18
06
13
F9
0D
F0
09
01
01
FA
09
EF
F5
03
EB
EF
EF
F8
F5
F2
F7
F6
FC
E7
0A
FA
09
F6
FB
E4
FB
18
0F
FA
02
06
18
07
F9
F4
03
04
F2
F2
F6
F0
F8
1E
FE
0D
F2
07
02
E1
EA
FE
E8
06
0B
E7
F6
06
F5
F3
05
F0
F6
EB
07
F0
F9
F3
05
F2
0C
17
F1
11
12
FB
03
07
0A
0D
F6
F8
0E
0F
17
EE
F7
FA
F7
01
F8
E1
F9
F5
10
FC
E9
F6
0D
F5
10
02
1A
02
F2
11
D1
F4
DD
E7
08
E7
F5
01
04
08
F4
20
02
02
09
F4
F2
E1
14
CB
F8
0C
E6
E1
E7
02
06
D5
FF
FD
EF
11
17
FC
F6
07
EF
F1
13
05
19
1E
FF
00
FE
0B
14
FE
ED
F8
08
0D
14
FF
0A
06
F5
0F
FA
E9
07
F2
0E
F6
FE
E4
1B
0A
FD
17
DE
1C
FF
F0
ED
01
24
05
26
0C
F3
FA
F4
E2
02
16
0E
1D
20
07
05
F2
E8
EB
F8
F0
F2
EF
EC
F2
EF
1D
FB
EE
E9
02
1F
10
12
00
0A
1D
EE
17
FE
0B
E7
F4
05
02
25
FE
FE
05
0D
FC
ED
E1
01
E6
E4
1C
15
16
00
17
FC
EE
12
09
0C
1C
F0
00
1B
DF
E2
05
F7
01
EC
18
19
DE
CD
04
FD
00
03
05
ED
F9
F3
0E
FE
EC
ED
0B
11
E1
00
FB
F7
04
09
F1
0A
12
01
20
22
0E
14
FD
ED
0E
F3
E3
F6
09
16
F8
F9
FA
0C
04
1A
0A
03
DC
F9
FA
13
01
FC
18
00
27
09
DA
13
06
EA
FF
F3
FD
F6
F4
FA
E5
F8
0B
F7
F5
FD
F2
09
E7
10
18
FC
19
E3
F6
F8
1A
E3
FC
E9
EB
DF
F3
F2
FC
0E
0F
E6
1C
FB
07
ED
FC
E8
F7
15
24
FB
E7
08
F3
E3
08
F2
D8
14
1B
EB
11
F0
EE
FF
F1
1A
E6
17
11
FC
02
11
07
EC
11
0F
17
0C
EB
FD
F7
07
09
FB
EC
EB
EA
F3
F4
E6
DF
ED
E6
E6
0E
F6
EF
10
02
F2
08
06
FF
FC
E8
DC
06
21
20
08
19
FF
EA
02
E9
E9
11
05
DF
28
0F
11
F6
00
0E
FD
0A
03
E6
01
12
FB
15
02
11
F2
F6
EC
F4
13
26
0B
06
13
1C
18
EF
14
09
03
00
1A
F4
E5
F8
FE
0D
FE
00
14
10
FB
EF
FD
FA
E4
07
1C
F5
FD
02
00
F3
ED
E1
EF
1F
00
F4
01
DF
E4
E3
03
ED
FD
02
EA
DF
E8
F3
E2
CC
F7
19
F9
FF
11
E9
E8
F0
F2
00
0F
F6
F2
2B
21
E7
E2
01
E9
06
E8
FD
13
0D
10
E0
01
10
03
07
E9
EA
31
1D
0C
E9
07
24
EC
0E
28
1D
09
0B
16
FB
05
F6
11
E6
0D
E5
F4
21
17
0A
F8
28
F2
05
0A
F2
11
0A
24
1B
08
E3
ED
F3
F6
FD
22
0F
0F
14
EB
11
1A
0C
04
17
DB
1C
00
DB
FD
07
05
12
F7
FE
E2
01
E9
02
21
FB
F1
EB
FC
04
15
07
0F
F1
E9
03
FA
ED
F5
F9
E3
22
23
E1
DB
11
0A
D4
1A
E1
E4
F5
07
14
11
F0
FF
28
12
20
E7
DC
06
EA
EB
15
13
08
FA
E5
12
05
F3
12
10
18
0F
00
11
F9
01
D9
11
05
F7
FF
0F
F8
0A
16
F2
E8
05
DB
D6
FC
F7
F7
10
27
EF
E0
21
ED
F6
0F
FA
F5
F9
F1
19
F5
F1
E4
05
F8
05
F5
E1
06
FF
1A
05
E9
09
F2
0F
11
F3
F1
21
EA
F2
E5
FE
18
E8
E1
0B
07
0C
F1
1F
F4
F6
FF
08
11
F8
E7
FF
EA
F4
03
1B
F8
0A
ED
E8
1F
03
EA
F5
01
10
1B
0E
EE
0F
E3
FB
F3
00
FD
1A
02
EB
0E
F3
E3
ED
0B
FB
06
FA
E2
E8
F7
EF
0F
F7
12
18
E9
02
18
ED
18
15
09
F9
05
FE
04
09
E5
12
E8
04
F9
F9
0B
EF
10
22
ED
0C
E3
FC
E9
EF
0D
0F
03
FA
E8
08
EB
F5
FE
FE
17
1A
0B
F7
E3
F0
E9
F6
10
18
19
E3
1E
EC
FB
0A
FE
F2
FB
1E
F8
F9
0D
05
04
18
E2
00
D3
F7
EF
15
ED
FA
13
E7
0A
F1
05
01
E4
04
FA
0D
0D
F5
F9
11
01
1A
1B
DB
F4
04
D6
FE
0B
05
16
FA
06
FD
08
F4
06
0D
03
FF
0F
06
FD
0D
10
0A
F9
04
08
0B
F8
0D
F6
FA
F8
FB
FF
FA
FF
04
F4
0B
ED
01
F4
F8
FC
F6
FB
04
F9
FB
0D
04
F8
0B
FE
09
04
FD
FD
FD
09
08
09
0D
00
F0
06
0B
FD
F5
06
02
F7
FE
FA
00
F8
FC
00
FA
0E
FB
0F
FE
F9
04
FB
FA
F7
FF
05
FC
FD
F5
02
F6
FC
0D
0B
0B
06
FD
FE
0A
F6
00
F8
04
03
FB
F4
04
F9
FB
10
F2
EE
FF
F6
F6
03
01
09
05
FA
FB
FE
F8
01
04
FA
18
F6
FA
EB
09
EF
0D
08
0E
09
FD
FF
06
07
02
F4
05
FA
05
F6
F7
0D
F7
F7
07
FF
04
08
05
FE
04
FD
0C
FF
FD
F2
ED
07
FE
FA
FD
EB
F8
FD
09
FF
07
F6
FB
04
FF
EF
FF
0F
F8
0E
08
0A
FB
03
F7
FB
01
FE
0A
FD
FD
FB
00
F4
01
18
04
FB
F2
05
FA
05
04
F9
EF
0D
F6
FB
0E
F2
09
16
03
04
F0
04
F8
0E
02
F5
E8
FF
0F
FF
0D
F4
F7
14
FA
FD
03
FB
F7
03
FF
0A
08
10
EC
00
01
FC
EB
01
F7
F0
F4
F2
01
09
02
10
F4
07
F6
F5
FC
E0
FC
06
07
0D
18
FB
E8
02
F0
01
11
F7
FB
E9
03
F1
05
18
F2
F7
FA
0F
10
E8
F8
FA
F8
F8
F4
01
02
FA
0A
11
0D
06
0D
08
F4
FF
FD
17
EA
F1
0C
F0
0C
E6
0F
18
06
F1
04
FB
FF
EE
EE
FB
10
F1
E4
E7
FA
DC
E8
0A
E6
0C
F8
23
F9
DE
EC
FC
F6
18
E8
E9
FB
F1
0F
07
FE
0F
01
F3
F9
FE
ED
11
FF
F8
08
01
08
0A
03
FF
17
0B
02
0F
F3
FB
0C
07
E9
EE
E9
FF
09
EF
F3
05
03
0D
03
EC
07
07
13
1A
E9
1D
FF
1B
02
03
F8
08
FF
1A
FD
ED
02
0C
F1
FA
F0
F7
02
F2
0B
F1
F1
FA
09
0D
EE
04
EA
E3
EB
F2
F7
10
02
11
EF
EF
F1
E9
FC
02
F3
EA
04
0A
05
F4
19
FA
EF
08
06
F5
F7
FC
06
FB
0A
03
0F
06
10
F0
00
04
FF
F1
F8
F8
FA
05
F8
12
11
FD
10
0B
ED
0D
F1
F2
FA
02
E1
F2
EA
FC
FD
07
E9
FE
0F
0A
04
EE
0B
F7
06
F2
05
10
F3
F1
00
0C
F0
04
F3
02
03
0A
E2
E7
03
F9
F0
05
F1
0D
0A
EC
F8
0B
0B
0B
F4
14
F0
01
F1
E8
06
10
F9
0A
0A
F1
00
FC
EF
F2
F6
EF
03
09
12
EE
0B
FE
08
0C
F5
00
07
02
FF
FC
05
FF
0A
05
13
05
FB
F4
0B
FA
EA
00
F2
0B
09
F4
ED
F5
1B
05
F7
01
08
14
11
0E
0D
FE
07
09
F9
FA
F2
EF
0E
0E
07
04
FC
0C
F3
00
13
0D
ED
08
0F
08
F1
EF
10
0C
01
F5
FB
F3
F7
EA
F5
0B
02
0F
F3
F0
0B
08
F9
07
05
F5
07
ED
05
F8
FB
FB
F7
F9
F9
00
02
19
FF
09
F3
06
FC
16
F8
04
01
EE
F6
0E
FF
0C
EF
0C
0C
05
09
FC
FF
F3
04
12
0C
09
F5
FE
F9
0B
0E
0A
05
F7
ED
04
FB
0D
FF
FF
00
F8
F4
F5
04
FA
08
FC
FA
FC
F3
09
FA
05
F5
07
02
0C
FD
F9
FD
EF
0D
FB
06
08
01
F7
FD
FD
08
FF
F2
00
0C
09
09
F8
00
0A
F3
F4
00
03
EE
05
1C
0D
EC
F5
E8
F4
F5
F6
F6
ED
15
FE
FB
F0
03
0B
00
FF
06
08
02
0D
ED
03
F1
04
F7
F1
E9
07
11
08
03
0F
00
04
07
13
F9
05
03
F8
0C
FE
0E
06
04
F0
EF
FC
0C
0B
00
04
01
FD
FF
03
06
F4
05
01
EF
FF
0B
04
FE
F6
20
0F
0A
F3
F4
12
06
27
F5
E4
1A
0E
12
F9
FA
E5
FF
17
F7
00
04
FF
F7
0C
17
FC
DD
FA
F9
20
FB
E8
0A
E9
01
FE
05
EE
F1
19
EB
FD
DA
E1
ED
01
EE
03
02
20
FF
E4
06
E4
FA
02
EC
EB
07
03
23
26
19
04
FF
E2
15
00
EA
11
F2
17
0B
F6
00
FC
E3
FE
EC
0D
0D
F6
E3
EA
21
21
DF
DD
E7
00
F9
0A
0B
08
FB
04
E6
17
EF
FD
04
F6
F8
05
FB
EA
E6
FF
EE
17
FF
DC
F5
02
21
FD
E5
FB
05
10
EA
20
03
DA
F7
12
1E
09
F8
02
0B
DE
F2
10
00
B8
F4
06
EE
08
E5
12
0B
1B
F9
11
18
D9
13
13
F7
07
EF
F1
FB
EB
07
00
F7
22
E8
E2
12
1F
EF
F8
FE
16
FC
EF
E8
E3
08
E8
F8
04
15
E0
12
19
1E
10
FE
04
F6
07
FC
0F
10
0B
F7
09
EB
FB
F3
FF
03
09
19
19
04
E0
01
FA
E2
0D
0D
E5
14
EB
0F
12
0A
FC
1E
F9
E0
FF
E6
0D
1A
0F
E7
04
15
02
02
27
02
1A
0B
E7
17
F2
FF
F9
EC
0D
05
0D
0A
07
16
13
1D
07
08
01
E4
07
05
F4
07
0C
F9
15
12
03
FB
F2
11
F8
02
E8
12
FD
0A
E3
E5
F9
01
F6
02
09
F7
03
E2
FB
05
E3
07
EE
F1
00
07
EB
FB
FC
E6
F1
FB
ED
DE
FE
E6
EF
13
13
F6
FE
E5
15
F3
0C
09
FB
09
1A
FC
0D
ED
14
DF
03
04
EE
ED
0F
D6
FB
23
EA
1C
1E
FA
0A
EF
E5
12
FF
1D
29
04
F0
DD
DA
EC
F4
17
FD
F5
17
D7
00
E9
08
D5
06
F5
05
F8
E6
F5
0C
1C
13
FA
00
12
E9
EB
F5
12
06
F1
F5
00
10
FF
16
01
F1
FC
0D
02
08
EC
E8
DE
FE
ED
13
04
09
F4
0F
E6
01
00
02
FB
F2
F6
FC
12
FC
02
F5
08
FB
04
FF
11
04
01
0D
03
FF
F6
0D
F8
F6
00
08
F3
0C
FE
0A
EF
F8
11
F4
FF
00
F7
0A
EF
FC
FA
0A
06
F7
FB
0F
05
0C
F2
F5
F8
FA
F4
06
02
F4
F5
02
0C
F7
F2
F2
01
05
F4
FC
0F
EF
07
EA
05
05
EF
0E
05
05
FB
01
12
0E
07
F9
EE
06
FC
F9
FB
04
FA
00
F4
06
F6
EF
F9
15
FE
04
F4
08
F6
02
10
FA
08
08
FB
0B
03
10
03
F7
00
0B
09
03
FB
FD
08
F7
08
03
0F
05
F0
03
FE
14
EE
ED
06
FC
07
11
F9
03
03
0D
02
0C
04
0C
00
F6
F4
FC
FF
F1
F5
0B
F6
00
0B
F6
0B
F9
0A
FA
08
01
F4
FD
FE
F3
14
04
F6
F1
05
EE
F0
06
00
00
0A
F5
FE
F0
F2
F4
02
09
01
0C
F5
FD
22
0F
1C
07
EE
F6
F1
F4
EA
E2
F4
F2
1D
00
1B
17
1B
FD
F2
F2
E9
FB
F1
14
04
19
0F
07
01
EC
02
CF
19
0E
1C
08
FF
18
F8
F9
EE
0A
15
F6
FF
F9
02
06
08
F4
00
24
E4
F9
E1
F3
16
EC
E4
D7
FD
FC
FF
FF
13
ED
F7
EC
F2
06
02
F8
EB
09
18
13
EB
EA
16
FE
FD
FA
14
F1
E1
F1
E8
FD
F8
F8
05
FC
08
0D
01
1C
14
ED
0F
FA
FE
0F
EE
1F
1B
1C
F7
EC
F8
FD
E5
0E
0A
06
0A
0D
05
15
09
11
1F
F8
16
EE
F3
F3
11
0A
0F
0A
F1
FF
04
14
FE
E9
02
03
1A
1F
D8
EF
ED
0C
09
02
07
D9
13
15
F4
FC
07
18
FB
01
F9
0E
0D
0D
FD
FB
0D
FE
EB
E7
EC
ED
EE
EF
FD
19
06
EC
0E
F1
E5
02
FA
E7
EE
E6
F3
13
04
08
15
0B
02
DE
0A
14
2A
E5
FA
F0
10
E9
EA
32
02
0E
0E
25
1B
24
0C
22
20
EF
0E
19
DE
07
1A
06
ED
F9
25
E3
04
E4
0B
F0
04
11
EB
F8
1D
27
1C
0F
F6
E6
21
18
23
E5
FC
F2
EF
EF
02
FE
16
DB
FE
F0
15
EE
0D
16
DB
01
15
19
F1
F5
F8
F1
06
1A
09
0D
FB
D8
12
0F
F7
0D
30
09
F4
0C
1F
E4
D1
DE
16
E7
E0
FE
F0
F4
F8
E9
E4
FF
E2
EB
E1
07
17
DB
E0
FD
0A
F4
15
EC
02
07
E3
ED
0D
23
00
13
E5
FC
CE
FD
0A
1E
FF
03
0C
12
D3
F4
01
18
FE
1C
E8
F7
E5
0B
EB
F8
03
15
20
15
FC
07
1F
F8
F9
DC
03
E9
1A
F1
1D
F5
27
0E
1A
01
FF
E7
F7
D2
EE
F4
22
24
E1
FB
CD
17
12
EB
E8
02
1F
1A
F6
0A
E5
2A
FC
E6
0F
02
DB
E5
FD
F0
21
EB
13
07
0E
FF
0A
FF
FC
01
04
0A
00
F5
FF
FE
FB
06
0C
0A
FD
09
07
FE
0C
06
00
08
04
09
FA
F3
EC
FC
06
FE
FB
08
FB
08
0A
02
02
09
03
0B
F8
02
01
00
09
01
08
FF
FF
F7
04
00
05
0B
02
08
F9
10
0E
04
03
0B
FB
0D
FE
03
FF
01
FF
0A
F9
08
03
00
F7
09
0C
04
0A
03
F5
10
05
FE
0A
07
07
04
FA
FC
04
06
08
F9
FD
FE
09
FF
0C
FB
04
04
F5
01
FA
09
FE
00
FD
09
00
FD
05
FA
0A
02
07
11
FC
07
FF
0E
07
04
EF
0E
FC
09
FC
02
07
0E
F8
09
04
07
0F
13
FF
05
FE
09
06
01
F9
FB
F7
FC
06
03
06
01
01
00
F0
F0
05
0B
02
FC
0D
F4
00
FC
06
F2
F7
F5
FA
FF
06
FF
FC
06
09
F9
00
FC
0A
FA
FF
FA
02
01
0A
F9
08
FA
FF
FF
FF
FD
0A
03
FA
FC
04
0A
F0
F2
F8
03
F8
0A
0E
03
FD
06
FA
F8
14
F1
F6
FC
03
01
F1
F5
04
F1
ED
FB
03
F7
05
01
1B
0E
F3
ED
DF
FF
FA
F4
F7
F2
05
F8
08
FB
06
FD
11
06
07
06
00
FD
0E
FE
0D
12
06
00
01
17
00
05
03
0E
FD
11
FB
0E
F3
F8
10
F1
FF
FC
0C
0B
06
08
02
09
04
F7
F4
0B
F5
0B
04
FA
F4
03
02
04
F3
F8
ED
0B
FC
02
10
F5
00
10
F4
04
02
0D
FB
04
05
0C
FB
07
11
05
10
03
FF
FC
07
E0
F9
02
0D
0A
F2
0B
0A
04
0B
F0
FC
FC
02
FA
FC
FF
FD
05
00
E7
EB
F3
08
FC
0B
FF
03
FD
FF
FF
12
F3
FD
01
0D
FE
0F
03
0E
04
0E
FF
00
F7
0E
1A
10
F8
FD
09
F9
05
09
FE
F1
10
F7
FE
09
02
06
00
EF
F5
0C
01
0B
1F
05
F3
00
04
FC
FF
F4
11
14
EF
F0
FA
0D
07
0F
F7
11
0D
05
FC
FD
06
F5
EF
F3
12
10
F4
F7
02
F5
F8
FE
FD
03
F3
03
08
20
FB
02
F5
F8
03
F4
F4
F2
F8
00
FB
F8
F3
05
0C
F5
F4
F9
FD
FE
FD
03
04
02
F4
F9
0B
17
16
10
F9
03
07
03
14
11
0F
0C
12
EB
F8
08
FD
0C
EB
17
0E
18
0B
0C
F0
0F
F4
FD
08
FC
04
0E
FA
FE
0E
03
0C
FA
F9
0E
0D
F9
06
08
F4
F2
FC
FB
05
F9
EF
FA
03
07
FA
FA
03
F1
0B
16
16
08
10
11
18
11
05
0C
FA
0E
F4
01
05
F1
0E
12
EB
FB
05
F1
FD
06
10
00
04
12
03
17
0D
FB
0C
0B
19
08
03
0D
00
FD
F5
08
FD
12
FD
F8
FE
07
0E
FD
0A
FC
F8
00
F8
F5
0E
0F
02
05
FE
13
17
05
09
08
F6
EC
FE
F8
F3
FE
F6
FA
FF
F9
05
FE
05
04
FA
F4
09
F9
04
14
11
FC
0E
EE
F7
02
FC
F5
07
16
0B
04
0C
13
FB
03
FE
08
ED
F9
08
07
F3
FC
FC
01
0D
F3
03
08
FE
07
05
05
0D
F4
EF
FD
EE
EA
FA
EB
E5
F9
F2
F5
00
FE
01
0B
FF
02
F7
F2
0C
16
02
07
F0
FD
06
02
FD
FA
FD
12
10
09
0E
0A
0E
0B
FD
FD
04
03
F3
06
08
F7
F7
F5
14
FC
FF
0B
F6
EE
0C
FF
F6
0C
FB
FE
FF
06
05
02
F4
FA
F4
0C
0F
0D
05
EF
04
11
0F
F5
F4
F2
0D
01
0E
F8
00
03
02
10
00
FD
F3
11
01
FE
0B
08
FB
F5
0E
FE
F3
F9
FD
0F
08
FC
06
0E
08
11
02
F8
F9
06
06
10
06
0E
0A
FF
F5
F8
0A
EE
05
F2
FD
03
FA
11
F9
06
03
03
F0
FA
02
F4
EC
F7
14
00
02
09
09
0D
14
0D
02
F6
06
11
EE
0D
0F
FB
0E
03
F8
F1
F8
09
E6
13
07
F2
12
EC
02
FB
09
03
03
EF
0A
E9
10
05
09
EE
FF
11
08
0C
09
01
F4
F2
FF
01
F6
06
F4
03
FD
F5
ED
F1
10
FB
05
F5
09
F1
01
10
F2
F1
F4
F3
EB
12
00
07
FA
14
0E
F9
F4
FD
01
01
03
13
03
EF
F5
04
FC
F3
F4
0B
06
F4
0D
F1
0D
10
EF
F8
08
E9
13
11
07
FA
0B
0E
1C
0E
0C
EB
F2
11
0F
FF
19
EC
0A
16
F7
06
0E
01
01
0B
FD
F3
FF
EA
ED
FE
F9
05
06
EA
F1
0F
F9
FB
F9
06
0C
07
F7
F4
0D
0E
F4
0D
F8
F7
ED
0B
E4
EA
FF
11
0C
02
F7
F9
08
EB
F2
F6
0B
0A
F6
FB
01
07
06
09
F8
00
0A
FD
03
16
03
FD
ED
F4
02
12
04
EC
F2
16
F8
EE
F0
FD
0D
05
25
11
E8
F7
F4
28
24
FE
27
D1
FF
05
05
21
FE
29
ED
F9
0D
1F
F1
F2
15
19
E6
F8
0D
F2
E3
ED
00
FB
EB
0F
38
F9
1D
C0
20
01
2D
DF
EB
FA
0C
16
ED
F6
2B
13
24
E6
28
1B
06
F6
D9
D1
D8
1A
1B
03
C7
F3
D9
F4
DF
1D
1B
23
20
F3
0B
0C
F0
D8
01
D9
FB
2F
FE
DA
23
F9
16
FE
EB
14
08
12
FB
1C
DD
DA
DE
F5
09
EB
13
E1
F7
DB
FD
16
EC
02
24
1C
D0
D4
02
06
18
24
E0
D8
FF
08
E8
2A
41
07
FB
ED
E9
F2
2B
1C
1E
F0
04
03
E6
04
22
F3
EF
04
E8
EA
DC
FA
ED
1E
20
22
0C
CB
F0
DD
DA
E1
FC
FD
E1
F9
DF
FD
09
08
0E
08
28
EB
0D
D8
E9
F1
F9
E8
17
0A
D2
27
FA
EB
06
14
DA
06
3C
02
F9
F0
2D
15
E3
07
FE
03
00
FB
0B
05
FC
F4
F7
FC
F3
FA
00
00
05
FB
FC
05
FE
08
FB
F9
F8
F6
0F
FE
08
FF
F0
F3
03
FB
08
00
05
0A
FA
FC
00
F1
FD
03
0C
05
FD
02
04
FF
08
0D
F9
03
08
FD
FF
09
05
01
FE
04
10
01
06
00
0E
0B
FE
F8
02
FF
FD
0C
06
FC
0A
F8
03
06
F7
0C
03
F8
0C
F7
03
03
05
F7
06
06
04
02
FA
0A
02
FF
FF
02
01
F8
FB
FE
FF
F8
FB
F6
F9
05
00
FF
00
08
FB
07
02
FD
F0
0E
09
07
0A
FD
07
05
01
00
FA
FA
F8
0D
FE
01
F8
FA
FF
FD
FA
00
05
FD
03
04
FF
FD
FC
F5
F3
08
03
FB
F6
09
FB
00
07
FB
01
00
F9
FB
F3
FA
F6
03
02
01
0B
0B
03
08
03
06
01
07
0B
FC
06
00
FC
FD
02
07
0A
01
FC
F8
04
FF
FC
09
01
0A
09
01
FE
07
00
01
06
01
06
04
05
04
01
FF
FC
FC
06
FC
FC
01
02
FF
06
03
07
00
09
04
0B
FF
05
FF
FC
04
01
03
04
0B
FA
03
02
F7
00
08
0A
FE
00
FD
00
FD
03
FE
FF
FD
06
03
00
FC
FC
08
FF
03
0A
05
01
00
00
FC
09
03
07
FB
04
FF
02
F8
01
FC
FD
02
02
01
02
07
06
FF
FB
02
FF
09
04
05
04
03
FC
06
01
0A
04
06
08
07
FC
FA
FF
03
01
FD
02
02
FC
09
FC
03
05
02
03
08
F9
FA
07
03
0B
FC
FE
00
09
F7
FB
09
FE
05
07
02
04
04
06
02
04
FE
FA
FC
03
FA
FB
03
03
FC
FE
FB
00
06
03
00
03
04
06
05
FD
FB
FC
F6
FC
FE
01
09
01
08
06
03
05
00
00
FC
FE
FF
00
00
FD
05
04
05
06
07
FE
01
FF
03
F8
09
08
08
F7
04
04
04
F9
02
EA
F0
EC
03
F3
04
06
FD
05
F0
07
0B
EE
09
01
FB
05
04
0B
FE
F8
FA
09
EE
0A
03
F6
FF
04
ED
E9
E4
05
F8
0C
08
04
15
02
FA
04
F6
09
FC
F4
07
F3
18
FD
0C
F9
F7
EE
F5
06
06
FB
F8
FB
0B
0E
00
0B
00
FE
F2
F4
ED
03
04
F9
07
FC
02
FC
EF
F7
F8
F9
F6
0C
08
0C
0E
F8
04
FA
11
00
F7
00
02
F4
04
01
F1
14
07
0F
06
0F
11
EF
04
08
04
F0
FB
FE
EF
0D
F9
F8
04
F0
09
01
05
F1
F0
F2
F3
03
01
01
02
F2
EF
F2
00
00
0A
FB
FA
01
02
F0
15
EF
F7
15
F9
FC
03
F2
02
F9
F9
F3
0A
F3
0F
11
FB
0D
FE
0C
FE
F5
FD
F4
06
FE
08
05
FC
FC
10
F9
10
FC
04
0A
FA
13
14
07
11
04
F2
03
03
06
0A
F1
04
E5
D8
FA
F9
F5
0A
F8
02
10
EC
05
F2
13
1B
F0
FA
EF
0E
F4
DC
00
EA
0D
06
F4
DF
DD
E6
15
EB
04
16
F3
FD
1E
0B
F2
EE
11
03
02
18
DC
0D
10
14
10
EA
13
F9
16
0F
05
0A
10
0D
15
1D
D0
F4
C6
E5
0A
12
FC
01
D9
F0
18
00
05
06
FF
03
02
22
00
FB
EF
15
1B
FB
D1
E1
EC
FB
0B
F3
E2
F5
01
0D
DF
E1
06
08
16
F9
F2
F3
09
24
ED
DB
20
FC
05
19
DC
05
F4
11
0B
F3
0E
0D
E3
FB
24
E8
12
E5
EF
E4
07
F6
EA
02
0F
1F
FE
00
EE
14
0E
E7
0E
14
0E
08
DE
0A
F7
E0
01
FB
02
FC
0F
FA
E4
E0
F9
11
F3
EE
F8
1E
1C
E5
FB
E5
0C
04
19
FF
00
F8
19
09
0D
05
03
F2
E8
FC
E0
F8
F4
0E
EB
E7
07
D7
E9
E1
F7
0A
16
E8
F2
08
FA
FA
FE
FE
08
F2
04
F3
F4
07
05
FD
04
FC
F6
08
05
11
02
00
05
00
07
06
08
11
00
09
0D
10
08
0B
FF
F8
FB
F2
0A
01
F6
02
FA
01
FF
12
09
10
F7
FB
07
FE
F9
07
FD
00
0C
FF
0F
FE
FD
01
FD
08
FA
F6
FB
0A
F5
06
FA
05
F7
F1
07
08
0B
FA
08
13
FB
F9
FD
06
03
02
F9
FC
05
05
F5
03
F4
04
00
0A
08
FF
0D
05
08
0A
02
08
0A
F7
F4
00
0C
01
F5
FB
F5
03
F8
07
08
F7
00
01
03
04
0A
01
F9
01
FC
F7
04
F8
ED
03
09
13
F1
FE
F9
0B
FE
0A
F4
F3
FE
FB
F6
FC
F4
F7
04
09
FD
F7
0C
FB
F7
08
FD
0E
F5
FB
FC
F1
0A
10
0C
0B
00
FC
05
F1
04
FB
00
FF
F9
F5
FC
0F
F0
F9
09
01
03
05
03
0E
13
00
02
0B
F8
FA
0A
06
01
0D
EF
1B
12
EC
F9
F6
ED
16
EA
F3
D6
04
1B
13
19
01
1D
EC
DF
FB
1B
0D
0B
0D
D8
20
D3
26
F0
F4
0E
12
32
04
F1
08
EF
24
1D
1D
1A
F5
DF
E7
00
EF
D7
1A
F2
1A
F5
FA
D4
D6
22
F9
07
EB
DA
27
1E
EC
02
D7
CC
14
01
DD
F0
DB
07
E3
1C
09
2C
F1
13
0C
17
0B
20
F9
FF
CF
E0
15
0B
FA
D6
12
F2
05
E5
1E
EB
08
0C
20
27
EB
17
E7
D9
0D
F8
29
25
14
18
D8
0B
0D
01
F2
FF
1A
F5
1C
10
F2
E3
F7
18
D4
F0
03
CB
E4
04
1F
23
1B
FD
E4
E0
18
1F
0D
02
D0
E9
EF
ED
0B
F9
E3
F6
FD
E3
1E
DA
F7
0E
FB
E9
0D
E5
0A
EF
F2
0B
06
24
0F
0C
F8
23
06
16
E9
17
23
1D
17
F0
E9
0F
FB
D9
F9
FB
F9
15
1D
0A
DF
FC
17
EC
E5
F8
F5
25
F0
C0
E5
E7
F6
ED
13
00
FC
EF
F5
19
04
04
EB
23
0D
F9
05
FE
EF
EE
F8
1F
EA
08
F0
1E
0C
E0
D9
06
F2
FE
0E
01
E2
0B
FE
11
F2
EB
F9
0E
FB
FB
05
EF
1B
08
F9
F1
E7
14
05
FE
F7
18
03
09
E3
17
EE
FB
E2
19
00
DA
F6
18
0E
17
E1
E8
01
FE
F4
30
F5
17
0A
FC
F1
E0
0A
E0
02
FE
F4
E3
E1
E9
F7
01
0B
03
F9
0F
18
F6
15
00
10
F9
13
1B
0F
12
E5
24
16
F5
19
F3
F3
F8
17
0D
F3
E0
EC
FA
F8
11
17
F3
0F
00
F4
18
F4
FF
F5
FE
0F
08
0A
E6
EF
0E
00
0C
E9
1B
F6
1E
04
22
02
09
17
EE
07
11
02
E7
F0
00
14
F8
04
FD
F4
15
03
0B
EB
EB
DF
0C
00
0A
16
01
D7
FE
E3
FB
FB
E3
E9
F1
E2
12
1D
11
09
E1
FC
1C
EC
08
EC
03
DE
05
07
06
01
EE
FC
0B
13
F9
02
0F
FC
14
01
F7
06
F5
0B
F4
FD
01
0A
00
F8
F1
11
04
09
03
0E
00
F8
FF
F2
03
F9
0C
09
ED
F1
F4
F9
0B
F1
10
02
01
F4
EB
13
E4
06
F4
E7
03
00
F4
0E
1A
01
11
F3
F0
E5
F8
F0
0A
FB
F2
FA
00
F6
F8
06
F9
FC
E8
E9
0E
09
F3
F6
02
07
FE
E7
01
EB
F3
E9
0F
10
14
00
F0
13
15
FE
F7
EA
FA
0F
07
FE
15
14
18
11
05
13
01
E3
FC
FD
F0
EC
E1
E6
0A
FB
02
FC
02
F0
F4
FB
15
EC
05
F9
EA
01
FB
15
FF
00
F2
FB
04
FC
F7
1C
00
F3
0A
1A
0F
F7
F9
19
0E
0E
F0
F2
F6
0A
17
F3
EB
F0
07
0D
04
04
EA
F2
E9
19
FC
FB
FE
0A
FC
00
15
F8
FA
F2
FC
EF
1E
E9
06
04
09
F3
E3
F0
FA
12
08
1F
E1
FD
F3
26
1A
E9
E3
0C
EB
FB
DD
E3
F1
D8
10
BE
E6
D7
11
02
E6
E8
04
ED
14
06
3B
11
2A
05
F1
1A
18
FD
FD
16
EB
FB
07
00
F0
05
00
F6
FD
0B
FA
FB
D9
FF
1E
09
07
00
03
05
02
E3
01
16
20
F9
14
01
FA
08
17
08
10
05
F9
F3
FD
1B
FB
E8
F1
F3
EE
00
E0
F3
1B
0D
0C
21
05
0B
1D
25
04
DC
01
19
12
D1
F9
EC
E7
D3
0F
E3
DB
F3
FD
1A
DE
F3
FB
F6
CB
F3
EE
F1
10
F4
FB
ED
01
F2
00
E5
0B
08
EC
0F
F4
FF
12
EB
04
1B
2F
11
EC
2C
12
FC
FD
F6
D5
05
0A
F9
17
1E
1D
F0
FF
FF
03
F4
FC
FC
12
FF
F9
EE
19
25
33
07
EC
DE
E0
EF
EF
1E
D4
F5
15
1F
09
FD
F8
F9
12
1A
16
24
13
DE
F0
DE
08
D7
07
F9
03
01
FB
01
01
FA
04
FC
F4
FC
08
F6
09
06
09
05
0E
FD
FA
03
FD
02
07
F2
10
09
05
F7
02
03
06
06
FE
FF
03
0A
F6
10
FF
FE
FE
FC
07
FF
00
0B
04
FB
0C
10
08
00
02
0A
03
07
04
FF
FC
08
02
0D
FC
03
12
FE
00
FF
0C
FE
FE
09
FF
0D
FD
01
0C
FD
03
F9
09
09
F9
0B
FA
FD
08
FC
04
04
02
F9
F9
04
03
02
03
F8
FA
02
F8
08
01
01
07
05
07
FE
04
03
0A
04
FD
FB
FF
03
FA
FB
0A
02
11
07
08
03
0A
FA
FB
05
F6
10
06
FE
F7
F7
02
06
FC
FF
01
07
FC
FD
03
06
04
11
08
08
0A
06
06
04
F8
06
FF
FB
03
07
08
01
FF
02
FC
01
F5
0A
10
FE
0D
0C
00
FE
0B
FB
05
04
03
FB
FF
05
FA
F8
06
FC
01
FE
00
05
FD
07
02
F5
03
01
F1
F6
00
0E
00
F3
00
F8
0B
FD
02
FA
FF
02
08
04
04
FF
FE
FB
05
01
FB
F6
EF
EF
04
FF
00
01
08
06
08
03
FE
07
F0
F1
07
09
0A
FC
FA
09
F9
09
FA
FA
FA
04
F6
FB
00
FD
FE
03
FB
05
0A
03
0B
FA
FD
00
F9
05
F4
02
F6
07
0B
0A
00
06
04
05
04
02
03
06
05
FE
05
04
F2
F7
FA
01
05
05
05
FF
FD
F5
03
FE
F5
06
07
04
00
01
F4
05
05
01
FB
FD
FA
09
0C
F7
FA
02
F4
F6
F8
09
03
FF
04
0B
FB
06
04
F7
08
FE
0A
02
02
FB
F3
03
F9
FF
07
04
04
03
F1
FA
E8
06
F7
02
F9
01
06
08
FD
0C
08
F6
FB
FC
04
06
01
FC
F6
06
06
FD
F6
FE
F6
06
FD
08
F4
06
FC
FA
04
0B
FD
FE
FF
08
0A
02
05
04
FF
FF
05
02
F2
E3
ED
01
E2
D2
FD
EC
E9
F4
E8
06
11
02
1B
F7
EF
FE
ED
07
07
EA
09
1B
FC
15
1C
02
FD
03
E9
E5
09
F4
1B
F3
E7
D8
E5
F6
E7
F3
EF
EF
EF
FA
2E
FE
04
0C
06
FE
09
FB
F1
19
E4
12
0B
01
EA
10
FB
00
EF
FA
DE
07
FC
F8
DE
0E
EB
0B
0D
14
25
17
11
12
FD
07
17
0A
27
FC
F8
ED
01
E5
DF
0B
0C
F3
16
0D
17
0D
0D
E8
01
E5
ED
12
E7
2A
F5
03
3D
10
2C
F4
11
03
1D
2A
F5
05
E7
0C
04
F2
E8
18
1A
E5
12
0A
E6
0F
05
03
14
0F
EC
E2
0F
05
11
0A
11
0F
E9
1C
0E
FA
10
F8
E5
03
E0
05
E8
DB
14
F3
E5
10
F3
F4
FB
DE
01
F5
17
FE
E4
0C
13
0C
F9
F1
01
28
E9
DC
05
FA
ED
F5
01
0D
0E
28
11
FD
0B
EE
FE
E1
24
E3
F7
FD
00
F8
EF
FA
FF
F9
F7
01
EA
01
00
F3
03
06
FE
ED
F6
F6
0B
07
F7
03
F4
04
0E
0D
F4
FA
08
05
05
07
0B
0D
07
0C
07
03
02
0F
F7
0C
F9
03
01
FE
08
F9
ED
FF
EF
FB
0C
02
FD
14
01
07
FF
06
10
03
F8
0C
F4
06
F9
19
F5
08
07
0D
0B
F3
12
0D
02
01
0D
FE
FD
FF
06
00
0D
F7
04
0F
0B
F1
02
03
09
06
06
F1
0D
F7
F7
F9
F9
07
F0
FA
F4
09
10
FF
F6
02
05
EC
02
FD
02
FA
EB
06
00
07
0D
17
FF
10
FC
16
F1
F5
F3
FE
F7
13
FE
F6
F3
F4
00
01
F6
12
11
F5
FE
11
03
FA
ED
FB
F6
F4
01
F2
EC
0C
F9
F6
00
0A
FF
FB
FA
03
0F
F0
FF
F9
FE
FF
F5
0B
FF
EE
09
F9
00
FB
08
01
0C
01
F8
0D
10
FF
06
FF
08
FE
EB
01
F5
01
F8
01
F4
FA
FE
F9
05
03
07
05
04
FC
00
FF
05
FD
0D
03
0A
07
01
00
02
FF
07
00
0B
04
05
04
03
F8
00
FD
FC
F8
F8
04
FD
00
F9
FF
FA
FE
02
00
FF
02
FD
02
F6
02
0B
0D
0A
00
FD
07
04
06
0A
02
FA
06
FF
FF
03
FE
01
01
05
FE
0B
F7
FF
F4
FB
FB
03
FB
07
01
08
09
04
04
F9
00
0C
FE
FA
04
FE
F9
0A
05
07
F8
02
09
03
07
FF
FE
05
02
0A
0A
04
09
09
09
FA
FF
03
09
FC
09
06
04
F5
03
EF
FD
02
04
FD
05
FC
F7
FE
05
05
00
05
03
FF
04
FA
01
FF
05
FA
01
02
FD
FD
FF
FE
FC
06
03
08
08
04
08
0A
F7
FA
FB
01
FA
08
08
08
09
01
01
FC
FC
FD
FE
00
0C
07
F7
F5
FC
F9
FE
02
00
FF
04
FA
08
02
FD
04
F9
0D
02
08
15
03
06
00
F7
08
F6
0A
06
05
02
FD
0E
F9
F6
FF
04
07
FE
F5
08
EF
01
FE
03
F2
05
FE
06
05
FD
10
F1
03
04
F8
14
12
F5
FB
05
0C
EE
F3
02
0B
0E
13
0D
03
EA
0C
F4
ED
FD
F2
EA
FC
02
EF
F9
06
FF
07
FD
04
F8
0F
06
F2
08
11
02
FE
F4
F6
06
06
08
FE
FD
F9
04
FF
04
FF
F8
0A
04
02
FA
FB
00
F9
F6
FE
FB
F5
ED
05
FB
F7
FD
F5
EB
01
0A
00
F0
09
10
06
06
0E
F4
F1
F5
0B
F3
FA
0F
0B
01
0B
04
07
02
0E
F6
0A
F0
F4
03
FE
05
FE
01
0A
0C
08
03
F4
0A
01
05
FA
03
06
EE
FE
00
EF
F0
F4
08
FA
00
01
EC
FA
F6
12
F6
08
FF
02
F7
00
01
08
F3
00
0C
0E
06
04
06
0E
FE
EE
02
F7
02
FF
F6
F7
F0
F7
F6
F7
EB
F0
01
0D
F3
EC
F2
08
06
FB
FA
F5
07
04
FC
F3
FF
07
06
F2
F5
14
01
F1
F2
EA
0F
F6
E5
FB
17
F6
F3
13
08
F5
FD
F2
F3
03
CF
F7
0F
FA
16
F5
FF
F1
F5
04
15
1E
01
17
02
0C
07
E8
05
F8
EB
DD
0D
FF
20
0A
F9
FA
EE
14
10
0F
07
FD
02
08
EF
F5
05
17
D5
F3
04
02
F0
04
04
EA
F7
EC
14
E8
03
F3
02
1B
F2
05
FC
F7
FE
05
E6
F2
0D
F5
01
ED
FF
0E
EE
FA
F9
EC
FB
04
EF
10
08
05
0D
01
08
03
F4
EC
F1
F7
14
1F
E6
FE
0E
E9
03
E7
EF
DC
F7
EF
F3
00
F0
F2
0F
1D
03
11
01
04
F7
E5
05
02
09
EC
ED
E5
15
06
10
07
0E
E7
04
16
10
1A
18
F5
0B
0E
06
EF
06
16
0E
05
06
0C
0E
FF
01
F4
FD
E1
05
13
E5
03
FC
01
01
05
E5
0C
FB
F8
F9
E8
E9
13
F9
FE
03
00
E9
06
F1
FF
F8
E6
F6
E9
02
1A
10
0E
0A
FA
1B
EE
F0
07
F9
0E
19
00
FB
11
F8
EA
E1
FA
EF
F6
18
EC
03
04
11
12
02
EA
15
E8
F7
1A
0E
FD
EC
08
00
09
F9
0B
04
E4
F1
D7
ED
F5
FD
EE
EB
F9
06
ED
01
0B
EA
ED
FE
0A
04
11
FB
F5
05
EC
0B
EF
0E
FA
FD
F9
0F
F6
F3
F0
EA
FC
12
06
FD
FB
07
08
F2
30
21
1C
E9
04
0C
F5
0A
01
F1
18
FC
FA
05
10
13
F6
DC
EC
ED
0D
15
F9
FC
FC
F1
15
0F
0C
FA
FB
F0
1C
EF
F5
EC
05
16
E3
0F
F5
06
ED
0D
0F
0C
F6
0A
EB
0C
0F
F1
EB
FF
F5
EE
ED
15
EE
09
1D
F3
E8
E3
FE
FA
18
16
FB
0A
12
09
ED
EE
0C
FA
FC
FA
FE
EC
E6
F5
0E
F0
FB
01
FE
F0
FB
FC
FB
F5
04
08
FE
0A
02
06
FD
04
0D
04
FD
07
08
FE
05
04
05
03
04
03
FB
FA
0C
07
07
0C
0D
FE
FA
01
FD
FF
FF
08
F4
00
0B
FF
04
08
F4
05
FF
FC
FE
FA
FC
05
0C
0B
FE
FF
F8
00
F8
F4
03
F5
0B
F5
00
F7
04
00
FD
05
0B
0A
08
04
02
F5
F9
0B
03
FF
FC
04
F4
09
0E
0B
0A
06
0C
FC
04
FC
02
FE
0D
03
05
FE
FB
08
04
F8
FE
0E
05
04
03
06
03
00
FF
F4
F9
07
FC
F4
F4
08
02
03
0C
F4
FA
0E
06
09
01
0A
FC
07
08
F6
FF
0F
0C
FC
00
01
02
06
01
09
00
09
09
06
0C
0A
09
00
FC
04
03
09
FE
FE
01
05
07
F1
FD
02
04
07
FF
03
00
04
09
00
09
0A
FA
F6
07
FC
FE
01
01
04
FD
00
00
FD
06
01
04
FF
04
FB
F5
03
F6
FD
FA
F3
04
FF
F3
F8
FA
04
02
FD
06
0A
F2
F9
0B
F2
E7
EC
FA
09
FD
01
F5
F7
FB
13
01
EE
10
06
09
F8
E5
03
F9
FD
05
0C
F5
00
F2
01
04
00
FA
FD
02
FB
F7
F3
EE
12
F0
07
FE
F9
F9
FE
FA
03
05
FF
F5
FA
EF
F4
FF
FE
ED
04
05
0F
F4
09
0F
FF
07
F5
01
01
08
04
02
F8
05
05
F1
0C
02
05
FD
F9
FB
00
EF
01
07
F7
03
F5
F4
0E
05
03
00
00
ED
0C
F8
F3
FA
0A
FA
04
00
F7
FE
11
07
FB
FE
0D
F6
FE
02
07
FF
01
F5
FE
EA
02
01
04
0A
02
04
EF
F3
F1
F2
05
0C
0A
00
F7
09
EF
FA
0A
ED
0D
FB
04
FE
F7
09
F7
EF
FD
0D
03
0B
FE
04
00
02
F8
EF
05
F4
02
04
F4
F5
FD
EF
11
F5
F9
0D
05
0A
E6
06
0B
EA
16
1C
15
0B
05
16
12
01
F0
0A
F1
03
EB
12
F4
18
F0
09
F2
E8
EF
FB
EF
0E
0F
0F
FC
0A
DC
11
E8
0C
EF
22
09
17
19
F8
0A
07
12
FD
0C
F4
E5
12
1F
18
EF
FA
18
01
0B
E9
10
FA
F5
01
ED
04
F3
F9
1A
10
EE
F7
E1
E9
E7
F8
FF
F0
F4
02
07
18
F5
00
FE
02
17
1D
08
0B
03
11
0A
EC
12
09
0E
06
06
F6
17
12
16
DD
0D
17
EB
E2
14
00
1F
FE
19
E6
00
E2
07
0F
E7
1A
EB
0D
EB
E2
E8
0C
E8
0E
E9
01
00
EF
E9
17
1C
E1
05
F0
EB
F0
10
DD
21
28
11
18
FD
0C
FE
EC
13
08
DE
12
EC
09
F6
16
0F
FB
FD
08
E7
00
D2
E5
FA
E0
FC
E2
00
13
12
FB
04
F5
FC
16
F8
E5
F8
FB
00
EE
DC
09
0B
F5
06
05
0C
FB
08
FE
EF
E5
E1
F4
0E
05
0A
20
E9
EC
1E
04
E6
F2
F1
FA
F5
F1
FD
18
0F
DE
09
DC
F3
F2
F6
CD
0B
19
FD
DE
E6
15
09
FA
0F
1C
00
E7
FA
F0
F2
0E
09
E2
E0
DB
0F
F1
01
0C
07
F0
09
11
08
00
02
F3
0C
01
0C
02
17
18
ED
F4
E4
F8
0D
E3
29
16
F0
E4
F8
D4
F7
FC
01
FA
02
FF
04
0E
0C
06
E8
F1
10
07
EF
FD
1C
1A
ED
EA
03
EF
04
FE
DD
E6
10
07
21
13
ED
11
F0
04
EF
E7
0A
0D
0D
09
0E
DD
FB
00
0A
F3
12
0F
FF
07
12
0E
0A
F6
08
08
13
07
0D
E4
11
F3
E8
F4
EC
16
0D
16
F8
29
1A
FC
F7
1D
18
11
E1
EE
F1
E6
10
0A
EC
D6
E2
25
1D
24
F5
E5
13
F3
15
02
13
F1
FF
F4
09
ED
FF
EE
08
15
EE
F5
F6
E7
EA
FE
11
F7
10
E6
F4
08
28
F6
07
02
1B
F3
0A
06
F4
F2
00
02
F4
E8
06
02
F4
FA
08
0C
09
18
F5
0F
04
10
F6
0D
0D
FE
F5
00
1B
15
FF
F1
EF
F0
ED
E7
07
FE
0D
06
09
1C
11
08
12
E5
09
10
DF
DB
F5
07
14
E7
1A
FE
F2
EC
17
01
15
EA
01
E4
E7
0E
FE
E8
F0
17
12
F2
EF
01
F5
06
F9
0D
F4
F5
05
0E
17
F7
FF
F6
F8
EA
0D
F2
E6
FE
0C
FD
E6
06
F0
09
EB
14
FF
13
06
01
07
E8
F9
1D
EA
07
05
20
FA
F9
09
F6
FA
06
14
F0
FA
FB
02
EC
23
0E
09
F8
0E
F3
E7
EB
EE
E2
00
FD
FC
F2
16
0C
F5
1F
F1
F8
03
F3
F5
FC
0F
0E
1C
16
F9
0C
FB
12
26
FA
D1
F9
EF
03
18
FA
17
00
FF
F5
F9
FA
F5
EA
03
01
04
FE
F3
DA
0B
11
E7
1F
F9
D9
EC
01
E8
00
F3
EB
17
FD
EE
E9
FD
00
F4
F3
FB
08
15
0D
F1
F2
F9
11
F6
17
14
13
02
00
00
FE
FF
E5
EF
F4
02
F9
04
03
19
EE
FC
0C
0E
E9
FE
02
F8
FB
F6
FD
0D
0A
08
02
FE
0D
F3
F7
EB
F8
E8
E1
F6
EB
01
0A
FD
0A
F3
08
1B
FB
E5
09
11
0A
FE
05
02
04
F2
03
FF
02
ED
ED
03
08
FE
13
11
13
E6
09
0F
FE
02
E2
0C
F5
E2
05
0A
0F
1A
02
0E
09
04
0E
FD
E4
0C
EE
04
F4
E7
F2
E7
0E
07
03
13
0C
0C
E8
EC
F2
0C
F6
E8
05
0F
04
08
F2
EA
07
10
F3
E5
00
FE
09
04
10
00
17
08
F1
FD
0F
F5
E9
09
F0
0A
F2
17
0F
02
12
0E
0F
03
07
F0
FF
F0
F7
F9
EF
EE
07
FE
1D
FC
E1
0A
FE
02
FD
F6
E1
0F
02
15
EA
0C
04
F2
F4
19
16
EC
F9
FA
0F
DE
EE
EB
FA
DE
F3
1E
FA
02
0A
FD
EB
29
1B
EE
09
DA
FC
EB
04
FB
EE
17
02
EF
FF
DB
F7
F9
FC
E9
16
21
20
02
D2
E4
F2
1B
F2
CC
21
12
E8
F5
21
20
03
0E
11
02
FA
F6
07
28
12
E8
25
F7
EF
1D
0B
08
F7
E4
23
04
20
16
15
1A
08
19
15
0D
0E
18
E8
03
04
0A
08
25
03
FE
F3
F8
E2
F1
FA
E9
11
DF
22
1D
0F
1F
FF
E4
E5
05
0F
19
0A
FD
01
18
3A
0F
3E
DC
E3
08
08
D6
F3
12
FB
DF
E1
DB
F0
F7
FC
EE
BF
11
0C
03
1B
14
E2
0A
E9
E2
E4
FE
EE
29
FE
06
0A
0C
36
38
08
09
04
FB
F3
E9
F9
CD
FF
05
EC
04
E1
E5
F2
0F
F8
F2
FB
18
08
19
04
0A
E0
09
25
0B
FD
EB
E7
E0
E1
D7
FD
07
F5
01
FE
1A
E3
1D
F3
01
FC
0F
F5
02
FD
FE
FA
FF
FF
FB
00
F1
F4
07
05
07
0C
F7
08
01
02
F4
03
0B
FE
00
F9
07
03
FC
FB
FE
09
F1
F3
05
F8
09
F2
F6
F4
09
FB
FB
F8
07
06
FC
03
0A
06
05
0B
04
F6
00
F4
06
0B
0A
04
F8
F7
04
04
07
FD
F6
F4
FB
03
FE
FB
FB
FC
0B
FF
01
09
FE
F6
F4
FA
FE
F2
02
FA
08
03
F4
05
09
F8
FF
0F
09
00
0B
09
0C
05
F1
03
05
F7
F5
F9
FB
FC
FB
01
01
0A
04
0E
09
F7
06
07
07
03
08
04
01
FC
04
08
09
FC
FE
0B
FA
07
06
02
03
0A
F7
00
F8
FE
FB
FC
07
01
F5
FE
09
07
05
08
F9
09
F8
FA
02
FC
05
FF
F3
F6
12
FC
FD
FD
F2
05
0C
0B
05
FE
FA
04
06
08
01
FA
FA
09
08
F6
FA
0D
01
0A
FB
0B
04
08
F4
0B
FE
0D
01
FE
FD
F0
04
FD
08
02
FD
0C
FC
FC
F9
FE
06
01
FC
FD
07
FE
01
0E
FD
01
0A
04
02
04
F5
F4
FE
01
03
0C
09
F6
09
00
FA
00
FA
F6
F6
01
06
08
01
F6
08
FE
01
FD
0B
0D
03
02
0A
05
FE
01
F5
04
F8
F3
FC
FF
F8
03
FC
FE
FD
02
06
09
00
04
06
01
05
FA
F6
FE
FD
F5
FE
F8
F5
00
00
0A
FE
FD
06
07
00
02
FD
09
07
06
07
FD
FF
04
FC
FF
FE
00
0B
FE
05
05
FD
F7
0D
FE
FC
F3
07
00
07
08
FC
FA
F4
01
00
06
FF
01
00
01
FE
01
FE
F9
F9
F5
01
03
02
FA
03
0C
F9
F5
FC
F9
01
07
0E
F8
03
06
FA
FF
FD
F7
09
02
02
F5
F8
01
FD
F8
0A
04
03
07
FA
0F
FE
09
03
0A
01
01
04
04
03
00
02
FB
FE
FD
07
FE
03
08
FE
FF
FE
09
0F
FE
FA
03
0C
FC
03
FB
FA
0A
05
EB
FC
F0
0D
06
12
EA
17
1A
18
F4
12
EB
EC
F9
14
FA
0D
0B
12
12
14
0F
0F
13
09
0B
0C
0F
05
13
07
08
EF
EC
F9
F9
F5
F4
08
0B
F3
F8
EF
FF
07
F6
13
01
09
F5
FE
EE
F8
07
14
08
00
FF
F4
02
F0
F1
F8
F8
01
F8
05
FB
F2
FB
F7
F3
12
FA
FC
03
F9
05
18
07
F5
0A
06
07
03
F5
EC
FA
E6
F5
04
FC
F4
F2
09
25
1C
F0
02
F0
08
0F
F3
EA
F0
0A
03
0D
FB
0C
03
F4
00
01
14
E8
08
01
10
EA
17
19
FF
FA
10
FF
01
E8
1E
0E
04
F7
E7
09
0B
0A
0E
EC
FA
13
E7
04
F4
13
19
EF
05
09
0E
07
14
0C
F1
12
00
F9
04
03
F0
08
00
0A
F8
E9
EB
F3
FB
06
00
12
15
02
F7
12
F8
F2
06
FE
FE
0D
F1
FE
F7
14
04
F2
F5
F8
0E
14
0A
0F
EF
0F
FD
08
06
ED
0A
F9
07
F2
EF
08
0E
F2
F3
08
16
0F
12
FE
FA
03
F7
1A
04
D2
0E
F4
F8
F4
FF
10
F6
10
0D
02
15
F6
F7
F0
0B
F6
06
EC
04
04
00
05
F5
FC
19
FB
00
02
00
F7
01
F8
EE
0A
09
FB
0B
06
EF
09
FD
13
06
02
0A
10
F8
FB
FA
FF
05
FE
03
FA
FD
06
00
F4
03
F8
FF
EB
0D
F7
0B
15
DF
E4
0F
F6
FC
F0
0C
11
0A
17
03
16
F0
EE
F3
08
EC
0D
14
E7
E8
02
EC
F0
FE
04
ED
F9
F3
05
F8
0D
00
FB
EE
E6
06
03
E8
09
02
EF
02
F3
00
F2
02
13
F1
EE
00
EB
0A
11
0E
FA
EB
F3
F3
FF
F9
FA
EC
06
F1
FD
FA
E6
E1
07
15
F8
F4
FE
F2
F0
10
FE
0F
07
09
DA
EF
FD
FF
F3
FF
EC
FE
14
F7
F6
D7
02
EA
1A
D4
F8
FD
21
E9
26
18
EB
03
23
0C
F6
27
03
21
17
0A
00
F4
EE
F1
01
D5
FD
03
05
DC
FD
1D
D5
E4
F4
01
0E
07
F7
F4
1C
0B
EB
0E
1B
FE
EA
F8
EF
10
F7
E5
F5
F4
F2
DF
F3
F3
FB
DD
FF
03
FC
FA
F6
25
DA
04
0C
FF
07
0A
DF
DF
F7
FD
ED
10
E6
F9
D7
16
11
DB
EC
F6
E9
08
FA
EB
F5
E2
1A
FD
01
00
27
21
19
F9
11
19
CB
EB
F4
F5
DA
E9
EB
28
04
00
17
08
03
EF
1C
EF
E4
ED
04
E2
0B
13
DD
17
04
12
F7
FE
E1
DE
0C
17
30
C4
16
07
1C
00
F3
EB
06
F4
F9
F2
ED
F9
05
1B
E5
D7
F4
F4
01
01
03
02
02
14
FF
FC
FB
06
E8
18
03
FF
06
1F
EC
0B
F0
E7
06
F5
14
ED
EA
F4
F9
11
10
E7
F0
08
F8
F6
03
F0
14
03
F0
F8
F9
ED
F6
FE
EC
0F
00
16
FF
10
F8
0B
01
F2
EE
E7
08
F5
F5
02
FE
04
F5
12
04
03
15
09
03
08
E5
14
10
04
FE
FC
06
07
F1
F8
05
EF
F7
11
02
14
FD
11
F9
E6
FB
01
EF
FA
07
04
F8
FB
F9
05
03
EB
F1
F1
F9
F6
EF
0C
FA
ED
F7
09
EF
04
F3
10
E5
F5
EE
EE
13
0D
FD
EE
11
EC
01
FE
F2
03
F7
0F
EE
18
FB
FB
05
06
04
16
FF
DB
E3
0C
10
06
F3
DF
FF
FB
0B
10
13
F8
16
FF
18
FE
FB
E9
00
04
FC
F4
0B
06
03
06
FB
F6
F6
08
0F
E5
16
0D
E3
F9
16
F9
10
FF
F7
F1
F6
00
F2
FB
E2
0E
0D
F2
04
0E
EB
F4
FE
F5
ED
0F
F7
0D
09
0C
08
0A
04
01
11
FA
12
04
15
06
07
FC
0E
EE
F7
EC
05
ED
FC
EF
02
05
03
0D
02
FF
02
FF
07
01
FC
FC
FD
02
08
FC
02
05
FE
FE
00
FC
FE
FE
07
04
09
FE
F8
FD
04
09
07
05
F7
0C
05
04
02
07
09
0C
FE
00
05
07
08
FF
03
FF
09
05
08
09
03
05
04
02
01
FE
FC
01
FB
F9
05
05
07
08
06
FD
05
FF
FC
FD
04
00
FF
06
07
01
FC
08
FF
FC
03
01
00
02
FF
04
09
FF
0C
00
03
06
03
07
06
06
FF
02
F8
08
04
FA
07
FF
08
FF
FB
FB
09
FF
F8
02
FD
09
FF
00
04
FD
02
FE
FF
FA
03
02
FE
05
06
FF
FC
00
03
FA
06
FB
03
FF
FC
FF
FE
FC
05
09
FF
FE
05
00
07
00
03
02
FE
FB
01
F9
F8
FE
02
FB
05
03
02
08
01
01
FA
01
03
00
FE
FD
0A
0A
09
FD
FD
F4
03
00
FA
FA
F9
FD
01
FF
04
FD
02
03
FB
02
EC
0D
05
F9
F9
E1
09
FB
11
E4
05
FA
D4
FF
23
11
F4
D3
EF
19
11
FE
1D
1D
12
DF
F7
F4
FB
EE
0F
10
11
0E
1D
EB
13
08
0A
D9
1B
01
02
07
F5
10
E0
FE
03
07
13
F1
FA
FE
13
EA
E6
EF
20
1E
E0
07
E7
14
04
03
F3
E9
F0
1A
FC
0E
EE
0B
0E
FF
0B
DF
F2
FE
15
F2
E6
E3
07
EA
EC
F5
FA
0B
EF
05
F6
F1
0C
F8
0E
F3
F8
F6
19
1F
1D
F5
F9
FE
0A
0F
DF
F0
11
F6
EE
04
FE
14
F5
F8
02
1A
09
1A
FD
FB
EE
E1
E7
FC
01
FC
F3
0D
F0
DD
1B
01
0D
E2
F3
FA
E1
0D
07
11
00
F1
16
FE
18
03
04
F5
01
0F
08
F2
E6
07
11
01
1A
E8
1B
FF
1D
F5
F4
05
F0
06
01
01
FC
04
16
09
07
ED
15
0F
F4
ED
EE
D7
FB
1C
02
03
0D
FA
FF
FE
02
F9
FE
0A
FE
02
F6
F5
F9
09
04
03
0C
FC
04
07
F7
05
FB
04
09
FC
01
F8
0C
EC
F5
F6
F4
F7
07
FB
F3
FC
08
FC
F9
07
ED
F7
FF
05
F9
06
10
02
08
05
0B
09
04
0A
F8
F4
0B
F7
05
FF
01
0F
06
F6
FE
F2
F9
01
FD
0A
0A
F7
FF
0D
08
07
FE
05
03
07
07
FC
FF
FF
FE
FB
0A
03
F8
0E
06
05
FE
F5
FE
01
F4
05
FB
0D
FB
F6
01
0E
10
FE
00
0E
F5
F7
FE
F4
02
07
F7
09
0D
01
F7
F6
00
FB
04
03
EB
02
03
FB
00
09
F9
FF
02
02
FD
F7
FB
02
F4
FC
05
05
0A
FA
FD
FD
F3
FA
01
FA
07
F9
FE
FA
01
04
F8
F3
08
FF
FC
FD
FF
00
09
04
0E
02
F7
00
11
09
FF
FE
04
0A
09
01
0E
0D
02
06
F5
07
09
03
FF
04
F9
06
01
0A
F3
07
EE
F0
08
07
0D
FD
FB
FD
F1
0B
F4
08
FC
F2
07
13
FD
07
0A
17
0B
10
0A
F7
15
EF
EF
0A
F0
FA
0D
FB
0B
06
01
FA
FA
FC
0E
07
F9
F7
F5
F9
00
F2
F5
E2
05
FE
FE
00
14
FA
F9
0B
07
02
0B
08
ED
F3
F5
F3
01
03
00
F2
FA
01
07
10
03
F6
08
08
FB
F9
F0
08
F3
F7
F0
ED
F9
09
0F
02
04
02
F9
FA
FD
FC
0E
01
F9
FF
FA
ED
F5
E7
F5
FF
F4
0B
17
05
F6
FB
FD
FF
F0
F8
0A
F5
EE
11
FE
FE
02
00
0A
FB
F8
05
16
00
08
F7
10
0E
E4
F8
00
EF
EF
FE
E9
F9
EF
F4
1A
10
EF
F0
EA
07
05
07
FB
03
F5
FB
FF
F6
F2
DE
E6
F2
00
FE
FD
F4
F9
EC
EC
FF
0F
02
FC
04
13
0D
06
00
04
FD
EF
F7
FA
EF
07
F5
EE
F0
04
F9
07
11
09
FA
F3
F2
F4
E9
FD
F5
05
12
F4
FC
F4
04
02
FA
08
FE
F0
07
16
DE
EF
0D
F4
DF
FC
EE
F4
0E
E8
04
F7
03
0B
F3
08
E8
FE
FE
0A
F6
13
1D
04
07
ED
00
E4
0F
F9
00
03
ED
EB
05
F7
FA
E9
EA
F6
11
DF
F0
F9
04
00
FC
EF
01
EC
03
12
FC
12
FD
E2
F0
00
EB
F3
08
04
0D
E7
FD
13
19
F0
EA
E4
08
09
EB
F3
F7
0F
0A
E2
EB
F0
0A
E3
F3
F8
E8
FF
07
F6
E7
14
FD
F9
F2
EC
F5
15
13
0D
DB
FD
E8
08
EE
10
0F
12
F0
0E
E8
1A
15
FA
13
04
08
04
F0
FC
F4
E8
FA
0E
FC
08
1B
1F
E9
0B
F9
F8
07
1A
E2
FF
0A
1B
0C
0C
F9
FB
17
21
08
FB
1A
FF
0C
F2
0F
EE
F7
08
F2
F3
17
01
1C
05
05
00
E4
12
05
E5
F1
FC
F0
12
F3
E4
F9
F7
02
1A
19
EC
08
E9
F1
EA
0E
0F
FE
FB
F3
EF
FA
16
ED
F6
05
00
18
FC
13
ED
F1
1F
20
F7
DC
EC
E3
E0
1F
E9
ED
1A
F7
1D
EA
0E
D8
DF
F2
FA
05
FA
0F
F7
F8
07
19
1C
EA
F4
14
EE
F9
EF
0A
F9
FA
03
0A
01
0E
17
E1
00
F9
F7
E3
09
FF
09
02
F0
FB
12
18
12
FC
E4
0B
0F
19
EA
F9
E3
F7
08
19
EF
07
E8
FB
F3
08
20
0A
07
00
00
01
0F
12
1A
09
16
00
F4
F4
FD
FF
09
ED
12
03
03
08
10
FD
F5
09
07
0C
0B
EC
02
F5
EF
0F
13
15
05
04
11
F0
05
22
26
EF
F0
F5
02
E3
EC
F1
02
16
FC
EA
13
F1
EE
0B
FD
E5
F4
F6
0D
FC
09
0B
D0
0E
FD
FE
FB
E8
10
0A
F8
F7
10
08
03
0F
01
EA
E7
08
13
02
F4
FD
E5
F1
24
F0
17
03
0C
23
0F
FC
FD
21
F0
EF
ED
F9
00
0C
0C
03
EF
19
0A
16
05
09
04
E5
F9
F1
24
04
FD
07
0B
12
05
F5
11
F3
0D
EE
11
16
0C
0D
00
0E
F6
F4
EA
E5
08
F3
07
E8
03
EA
E7
23
ED
F4
F7
E2
E0
F5
11
24
04
19
FA
DD
F7
F3
E3
F5
E9
04
FC
1A
13
07
0E
19
EB
01
0B
E4
0F
02
F9
EE
F3
10
EA
F0
17
21
1E
0A
09
F1
09
F7
F3
01
EB
FD
1C
0E
00
10
F1
F1
FB
08
FE
F5
1A
FD
FA
EE
14
F6
00
10
04
00
F7
FE
08
F5
FB
12
02
EA
FF
04
E8
EB
FC
F3
F7
F4
FA
DA
E8
22
0C
FB
0B
F1
01
E1
F0
1C
EF
EF
0A
E5
08
1B
F7
D5
FF
0A
1D
F9
DA
F5
EB
F2
10
02
15
F0
0A
FE
EE
EA
F8
14
11
EF
0E
00
EE
FB
F4
E5
1B
EA
13
0A
DD
03
FF
12
F5
FE
07
04
F0
F8
FB
08
02
F9
FB
FD
03
F8
01
07
FC
01
05
F7
0A
F5
FE
FB
F1
00
FA
F8
07
F5
F5
F2
FE
07
F7
FE
FF
03
0A
04
FD
02
0B
FE
FD
FD
F6
02
F7
00
02
05
FB
02
00
F7
F9
02
09
06
FE
F1
F3
FF
02
FE
FE
04
09
FE
FC
F1
01
F6
02
07
05
02
FC
00
F8
08
02
04
F5
06
FA
F9
F5
01
F5
FC
00
FA
09
09
F8
FC
F4
FC
F9
F9
08
FF
FD
F6
F0
01
F8
02
01
0A
06
05
F9
07
FA
0C
05
FD
00
03
F6
FE
FC
09
03
FA
F8
F8
FD
FA
F7
FE
09
F6
01
07
F5
FA
02
01
FC
F5
0F
FB
FD
00
FD
0B
F9
F7
07
15
04
09
02
F0
08
08
00
02
04
F9
07
FC
FD
F9
F5
FB
FE
02
F4
F9
F9
02
FA
09
FE
F8
F1
FC
F7
07
F7
04
FB
03
00
00
05
03
1A
17
04
EA
FD
F1
F3
DE
E9
F6
17
12
F4
16
06
FD
F4
18
E7
01
F2
01
F6
05
D4
09
11
11
01
18
12
11
08
FA
06
F0
05
07
0B
EC
F7
05
EE
19
F3
F5
EE
F8
EA
F5
FD
14
01
05
04
1E
F4
F8
F0
0A
FC
F6
F4
EC
F1
E9
13
18
F3
08
04
09
0D
13
0C
05
18
06
E4
08
1C
F6
EC
ED
09
0C
1D
0D
F2
E5
1A
FB
F6
FF
07
F0
07
10
F3
F2
05
08
03
F9
F7
FA
EC
F3
F3
F2
E2
10
EB
E2
F0
E4
1F
09
00
02
EC
F5
08
00
DD
09
E4
0C
F6
F4
E8
0B
10
F5
1C
EB
EE
11
FA
06
F5
E8
10
07
F6
1F
15
FE
F9
E9
FB
01
F4
FD
E3
1E
E1
EC
FF
14
03
03
1A
17
FA
EE
06
03
11
EF
FB
0C
07
F1
F0
11
06
DF
0B
ED
10
F1
EF
12
F5
DD
0C
18
15
06
0F
03
03
09
05
F1
02
01
FE
FD
0A
FE
FF
05
07
01
05
0C
02
FF
07
05
08
F3
FE
F7
04
04
FF
F7
F5
01
FC
F5
F8
08
FE
F9
FC
01
03
F9
01
06
03
0A
06
00
03
03
F7
06
08
03
00
04
00
FF
05
06
FD
FD
01
02
FC
FD
FC
00
02
FE
F4
03
FA
0A
09
03
02
03
01
08
FD
FF
FE
FE
FA
FA
FA
F8
02
04
09
05
FE
05
06
FE
05
04
02
F6
FE
FB
FE
07
FF
F7
03
FF
04
06
00
FA
F9
01
FE
FD
02
06
F9
00
06
0A
09
FE
02
FA
FB
F9
02
00
01
FF
0B
F9
08
FC
00
F4
F9
FF
F3
F7
FF
01
00
03
F7
F9
F9
01
03
02
02
09
02
F9
06
00
04
F8
F9
01
FD
FB
06
F8
F8
FA
00
FA
05
01
FD
FC
02
FC
FF
01
F8
07
04
01
08
05
08
0B
07
01
FF
08
01
FC
FB
00
1F
27
1B
E6
FF
13
F8
FC
FE
19
16
F7
F2
16
04
07
16
FC
14
E7
18
0C
08
13
F3
1F
13
16
1B
EF
E7
F9
D5
E2
F7
F8
05
17
1D
F9
01
EA
19
F2
EF
0F
F2
EC
05
00
E5
E7
FC
01
EC
EF
04
10
0E
0D
1E
FF
01
FF
15
FB
21
1B
0F
F4
05
F8
FD
04
0E
09
05
0A
F2
17
07
18
06
EB
19
F3
E4
03
01
01
0C
11
14
F1
EE
F8
F7
E2
FE
F9
E6
F3
0F
EA
FC
13
EE
F9
20
1A
16
11
0D
FF
0C
06
F4
12
16
FD
1D
FF
11
07
03
02
FE
05
17
0C
E4
19
E3
E8
07
23
16
01
F6
1B
26
F7
E6
02
0E
0A
F7
0A
F5
14
F1
E5
00
E7
E5
DB
DE
0A
09
0B
EA
06
D5
E1
E6
06
15
05
E2
18
18
1A
F2
F1
F0
18
17
06
19
04
FB
0B
FE
0F
0A
16
F3
FF
04
13
0D
F9
09
DB
14
F8
23
08
02
F3
0C
FC
07
09
F9
1A
FF
F9
03
F8
FA
17
15
D1
FC
FA
FD
E3
F5
DB
FA
09
DE
EB
05
F9
EE
03
FF
F5
E7
FA
08
00
E6
11
07
0E
F2
01
19
EC
0E
F0
12
F5
04
EC
FD
EC
16
F2
00
F6
E9
F9
0F
FB
F5
FB
01
03
EC
F3
F5
F9
16
F9
08
00
0D
F4
10
01
D7
01
EE
E7
F1
06
DD
F7
13
E6
0D
0C
FE
10
F6
06
EA
1E
01
FE
16
FC
EF
EB
06
17
F0
09
FF
E3
FE
00
E8
E4
F3
FB
FE
FD
04
ED
0C
DF
FC
E8
FB
F7
FE
19
17
E7
11
06
07
0D
12
06
07
EE
F3
EB
05
ED
1C
0E
FC
FB
FD
F5
11
F2
F5
0D
0E
01
FF
FA
FD
0B
FE
06
12
FB
18
0A
F6
05
F6
11
0A
FB
0F
EA
03
EA
F3
ED
F2
0D
EE
08
0F
14
0B
EE
1C
F1
1C
FE
19
04
08
FD
EF
13
03
10
F0
04
14
F3
13
EF
1D
FF
17
F3
0A
F5
0C
F6
F7
F2
EF
04
F8
FD
FB
05
F3
09
EC
0B
E3
EE
FB
E9
07
F4
16
E2
20
F2
FC
0B
EF
E7
EA
06
16
F4
0E
F0
12
EB
21
F4
F5
0F
EE
1C
E9
09
16
12
FF
FD
E8
EA
DC
0D
F6
F2
F1
EE
0F
05
13
16
F4
F9
DE
0E
06
FE
E9
15
F7
EB
03
15
0C
F8
F3
05
ED
F5
10
E3
ED
06
F7
FD
13
F0
FD
EC
F3
ED
EB
EA
17
0C
08
FE
F1
03
E5
ED
F3
F1
EE
0A
EF
0C
FF
FF
FD
23
0F
0F
FB
04
F9
19
12
08
13
E6
F5
1E
0D
EC
1B
FC
04
09
FD
09
13
1F
18
F5
03
F4
00
DB
0D
F0
15
0F
EB
15
F3
F5
EE
FD
F5
03
15
FB
1C
06
0E
06
FC
FD
F4
16
FF
FB
01
F4
EA
00
03
1A
23
01
F9
FA
E4
16
F4
11
1C
F2
FD
FE
FB
0D
05
08
FD
09
F9
0C
FA
DF
FC
F5
F2
F3
10
03
FE
06
FE
07
FE
F3
0A
F8
01
00
05
07
05
FB
FD
0E
EF
FB
F2
05
06
E3
F3
FF
FC
FD
01
01
F0
10
FD
FA
F9
F9
17
F9
FD
0A
06
F5
0B
10
07
14
F8
04
EE
08
00
EA
FD
EE
F0
FD
F2
01
FB
0A
FF
0F
F9
0B
0C
0F
F2
04
EE
09
EF
F8
10
FC
F7
03
0C
F1
F9
08
FD
13
05
FC
11
09
FD
0A
FB
FA
0A
EE
04
06
03
07
EB
0B
FC
09
F2
02
FF
0B
F1
FE
0C
06
08
F6
EB
E8
02
0E
12
EA
F7
04
17
F3
02
14
E9
10
F1
FA
F2
F4
F1
0F
F2
FE
02
12
0B
15
FC
0A
EC
F2
09
02
0C
F8
F3
FC
FF
11
F6
FE
02
0D
01
08
03
F7
FC
EE
F6
F4
0B
ED
F6
E9
07
04
FA
F9
FD
01
0C
E9
17
FA
E0
F7
1D
16
0C
F9
05
FD
09
0F
17
F6
E0
E0
FE
E8
F2
0A
18
0B
19
05
E7
E3
14
EE
21
22
EF
F2
14
2A
13
12
11
0E
25
1C
EB
1D
1E
EB
EA
FE
11
16
03
F0
FF
0A
F1
1A
00
08
08
F1
18
E2
14
15
15
D9
E5
D3
00
0C
F1
19
04
02
F2
0E
EF
F3
E3
DD
F7
E2
0F
FD
E4
1A
09
07
12
F5
E5
0B
F0
E6
21
F1
10
F9
E6
01
0C
FD
17
F5
EB
14
11
FD
06
06
16
1D
F5
1B
E0
F1
1F
13
1D
E4
15
FD
20
0C
0D
0A
11
07
2A
1A
F3
FB
FB
E3
00
0D
04
08
08
E3
02
E7
EE
FC
1F
01
F8
EC
1D
00
F2
0A
FD
FB
F7
0B
0D
10
F8
0C
05
09
00
09
25
0C
13
EF
FC
0B
FA
F1
EE
D7
FD
04
F0
FB
00
11
ED
14
F5
F0
DC
F3
05
FF
F3
13
0C
18
0D
EA
FB
F9
FE
FF
08
0B
04
12
05
F4
0F
F6
F0
FB
09
0A
0B
FB
06
F9
FD
F2
EB
11
EC
F9
0A
FB
F3
E3
0E
FF
FB
05
04
19
06
0B
03
1F
05
F9
EB
10
00
FE
05
F5
F4
E7
03
ED
E1
F0
FB
05
ED
1A
13
E4
EE
EF
13
FF
10
E0
02
03
ED
01
1E
F7
05
07
F6
F7
05
11
10
ED
F6
06
0A
0D
1F
05
14
EC
F2
09
F3
04
12
11
F2
EB
0A
FA
01
FC
0D
FB
EF
17
08
01
F4
00
F9
11
00
E8
EA
EE
FE
05
1C
03
EE
FD
04
17
EF
FF
F4
F9
12
F7
F6
EB
00
12
EE
F5
EB
0D
F9
0A
0E
F6
F7
02
17
EC
EC
1A
E3
00
F2
02
16
13
14
FD
FD
0A
02
03
0B
0C
18
EF
11
ED
09
03
15
05
F7
F6
F8
10
10
FF
F1
FD
FB
0B
06
13
1D
EC
F4
04
0F
EE
E6
F4
FC
0C
FB
17
0B
F8
F3
1D
F8
EB
E0
07
FB
FD
F9
10
16
13
ED
F0
15
12
09
1F
F0
1A
F0
E1
00
12
11
F5
0C
E8
11
0F
F5
11
07
F6
F4
00
E9
07
17
E4
FB
13
EA
F8
05
19
E8
E6
14
0F
FB
E8
10
18
F8
FA
0D
0E
F5
F9
11
15
03
11
F5
F7
1D
16
0C
FA
FB
F7
0C
1F
FA
F8
F3
06
15
E3
F5
03
0F
F7
FC
E6
0B
DA
E0
EE
08
15
FC
F1
DF
F7
E7
F3
F7
EC
E0
06
E7
0A
FE
FB
FE
FB
04
11
15
EC
E1
03
FB
09
05
11
F3
FD
0F
EF
03
ED
F8
FD
03
20
E6
E0
16
FE
EB
EE
10
04
F3
0D
0E
F8
FB
07
15
F6
DF
05
03
09
FE
FE
FE
F1
19
E2
0C
F1
E0
EF
FF
16
17
14
E4
09
FD
04
FC
EC
FC
13
EF
0D
E4
F9
FD
0E
EC
F7
F6
09
0E
FF
FC
11
0F
13
F5
DB
FA
05
FF
13
FE
11
FF
00
F9
00
18
E2
03
09
10
EC
01
05
01
EA
FB
0F
F1
02
02
F7
DF
CE
FB
FE
EE
24
EB
09
12
10
10
00
1F
02
EE
F3
0A
E9
0F
F4
ED
F4
E7
FD
00
05
1D
09
06
EE
EF
1B
E6
F0
12
0D
11
FE
19
18
DE
0B
0C
05
EB
01
0B
0F
13
E8
02
F5
08
0B
F8
E7
0D
03
0C
13
FF
F5
21
E4
10
F3
FD
12
F0
F8
DA
09
2A
F8
12
18
07
FF
0D
16
FB
F4
F7
C0
1A
07
F7
10
ED
FA
FF
F9
02
03
05
F9
E3
13
EB
10
F0
0C
18
F1
19
05
F5
E9
F5
15
F2
EE
F5
F6
F2
F4
00
F6
EF
F0
16
11
12
1E
F4
0E
E8
F3
E4
E1
EA
D7
EC
F3
E7
22
1E
17
FE
F2
1E
0F
00
FD
1F
14
17
0F
D3
F1
F3
E9
FE
EC
01
13
F5
0E
F5
1A
06
ED
FE
00
E2
F5
ED
01
F7
F7
FA
F5
FC
E2
19
F6
FA
FA
FF
02
06
FC
FA
F5
F6
ED
01
03
FC
F9
FF
1A
07
E5
02
EA
0F
FD
F8
1A
F5
F9
12
F9
F1
01
12
05
FF
E5
0F
15
00
FD
14
09
12
EE
F5
06
02
01
F4
08
E8
02
FC
05
02
FE
F5
EA
06
01
F8
0B
E3
EB
0B
10
EF
FC
02
FF
FB
17
17
F8
15
18
F0
F0
04
0F
0E
E9
F5
E8
F7
FB
15
FD
06
00
16
00
FB
07
F3
F6
04
07
F8
06
09
EE
20
13
0B
F6
F4
FC
FA
FE
0C
FB
FD
F1
F1
FF
00
E8
06
F2
F0
0A
FF
03
15
F6
F3
05
07
10
06
FC
F8
03
0F
EF
0A
0D
10
F6
F5
E8
EC
05
02
F1
17
1F
08
EE
0C
0E
06
EE
00
04
F7
12
FC
FD
FB
F6
F9
0D
0D
0E
FC
09
01
05
F4
FD
08
F8
E7
FD
07
F9
F9
08
F9
EF
10
01
05
F1
FB
EB
FD
0A
FF
FD
2D
F3
02
08
F6
EF
10
0E
FC
ED
FB
04
FC
E9
02
EF
07
F4
F3
E5
09
EA
EA
14
ED
01
01
10
FA
E7
DB
EB
13
D9
04
D9
E6
E9
F4
11
0E
DD
03
12
F8
E4
0B
1A
F8
02
06
ED
F9
FF
17
F3
FB
06
ED
F7
1C
F5
EA
E6
F5
0A
EC
F7
0B
E5
DC
08
01
EE
0B
16
0A
F4
04
EE
08
04
FD
0F
10
09
E7
05
FA
F1
FE
01
F9
F4
04
0C
10
20
11
F9
13
00
01
EE
F4
EF
F4
13
0B
F5
F2
F7
F1
20
F2
0B
FA
FB
E0
0C
FF
F8
13
11
F5
18
E6
01
07
03
03
F0
FF
02
00
EE
F7
0F
FC
0E
15
FF
1F
04
15
EE
0E
DC
F2
F2
FC
04
1C
05
05
04
18
FD
07
EB
F0
FA
22
0F
FA
05
03
0C
E7
FC
03
ED
16
25
FD
14
F4
DA
EF
FF
F6
EE
EE
0B
ED
E5
F6
06
F7
FC
F8
FA
FE
02
0A
FD
03
F7
01
FF
00
FB
F4
FD
F8
04
00
07
FA
FC
F1
FF
FC
06
0E
FF
03
00
F5
04
00
F9
F5
F8
0D
FA
FC
04
F6
02
02
F8
01
FD
F4
05
01
04
FA
F8
FE
03
FD
09
FE
FA
FD
FA
F5
00
06
00
01
FB
00
09
00
0A
04
09
F8
06
02
0C
03
07
00
FD
FD
FB
F3
09
00
FD
FC
04
FF
01
F3
01
F5
FB
03
FF
F9
00
FC
F9
FE
F3
F5
F1
F1
F6
0F
01
FA
FB
FF
08
0A
07
08
F9
02
FC
04
03
FF
0A
02
FA
03
03
07
0A
05
F7
FA
FB
F8
01
02
FC
FC
FF
01
0C
FC
F7
F8
FC
02
FF
06
FD
06
06
07
F5
F9
0A
02
0A
0A
FF
FD
02
FB
08
01
03
FD
FA
F6
01
05
F9
FA
FD
FA
F1
04
06
03
02
FC
F9
08
FD
FC
02
04
00
FF
0D
FE
04
FB
F5
0A
F3
11
00
11
EF
FD
FF
F4
FA
05
0A
08
ED
13
05
FF
F7
EC
F0
07
17
03
00
FA
13
0A
F4
0D
FA
F4
F9
EE
10
15
05
00
06
F7
0A
12
0C
EC
07
FF
FB
0B
F1
FB
FE
FB
07
13
FC
EE
04
0A
F0
F5
00
FD
FC
0B
F4
FE
04
F1
FC
10
09
FC
F1
EB
EF
FB
EE
14
0C
F0
DF
00
15
07
EF
0D
0E
0D
F6
EF
F2
03
0E
10
F9
FF
07
12
F4
EC
12
EF
0E
0A
0E
F8
F2
FC
F6
1D
0E
F0
FA
EE
08
FA
F7
12
FA
F2
01
03
F5
EE
FA
0B
FE
00
02
00
0F
11
EC
FE
FB
0B
FC
0D
F1
04
02
EC
0C
06
0D
EF
06
F7
0C
FB
EF
04
F9
08
FA
F3
F1
EC
FD
02
FC
F4
0C
13
FD
EF
02
0B
01
F5
F3
F7
03
00
07
10
0F
F1
0D
00
15
F0
FF
0B
F9
06
F7
FD
F3
0D
0A
FC
EA
07
06
F2
E5
F8
13
05
17
01
11
01
04
0F
04
F4
09
F5
FE
EA
F9
03
EB
0B
02
03
06
F1
05
13
05
F7
0C
F9
15
08
F3
00
E5
F5
FA
00
11
04
1A
FF
E9
F5
12
F2
0F
0D
EF
FF
F3
07
00
F7
F6
07
EF
09
05
0F
10
F7
F2
E8
F1
FB
ED
16
0F
F2
0A
EC
EA
14
07
04
0C
10
0F
FF
0F
FE
E6
03
04
FC
01
01
03
FF
0A
07
E9
13
0F
ED
0B
FD
FC
FD
FC
03
FF
0F
09
E8
03
F7
F5
FA
F2
07
F4
0C
0A
02
F5
F2
27
10
0F
0E
F9
00
F0
05
01
ED
F8
02
FC
08
F1
02
09
19
FD
0C
0A
05
EA
F4
0C
0A
0E
06
0C
F5
F3
F1
0A
10
FB
03
08
09
14
EC
05
0A
F5
FB
F1
16
F6
08
17
08
0B
03
EA
FC
FB
FF
0C
19
19
F4
00
16
11
FE
1A
01
09
E8
EB
F7
0B
00
FA
FB
1F
F1
ED
E6
FA
1D
26
EB
04
09
E9
E3
FE
EA
06
23
14
0F
0E
0C
F5
EE
E5
EA
0D
1A
FE
15
F9
FE
E7
F3
03
F9
0B
09
EB
06
EF
11
FF
0D
F8
F0
13
F4
06
0F
E8
01
E5
14
EF
FA
FD
09
07
F0
E6
06
EB
FA
28
1C
03
19
06
06
F8
0A
D5
EF
EC
F5
FE
05
0C
F4
F8
EC
08
1F
12
ED
EA
DA
E7
E4
17
F6
12
08
0D
E4
1D
0D
E8
F0
08
06
F7
0B
F3
1F
27
08
0A
EF
F5
15
07
1E
FC
EA
EB
0E
13
01
0E
16
D5
E3
E9
E8
F5
13
FC
06
E4
F6
17
17
FD
13
0A
10
01
F3
01
07
F1
16
E5
F5
26
FE
19
16
FB
FF
07
F6
FB
ED
1A
FE
DB
F6
03
F2
02
E2
01
F5
EC
0A
F3
E9
FB
EE
00
1A
23
FA
03
03
FE
00
F3
07
ED
05
E6
0C
0A
F0
FB
17
08
F3
01
DF
D9
06
EA
F7
15
EA
F5
E8
F8
FE
08
0D
FC
00
E7
02
FB
0D
EF
08
E0
06
04
E3
07
EE
0D
E8
E0
FD
F9
D1
EF
E5
01
E5
EE
F8
FD
EE
FF
F0
14
F8
24
06
0D
14
0A
17
F5
F5
FF
FB
E4
2C
EA
07
00
02
18
0B
E3
EB
14
EF
FE
02
1B
EE
20
1D
F2
F0
02
F0
E5
F1
F7
00
F5
03
ED
E3
F7
08
0D
E7
F8
F3
00
FD
22
E5
E8
03
03
18
FC
06
03
F3
FB
24
01
F0
F3
20
ED
14
0B
10
F8
EE
05
E0
E3
F1
EF
F7
07
05
F2
EB
FD
00
0C
EE
08
EA
05
F7
16
DB
D6
FC
1F
EA
FD
F6
E8
11
FE
EF
0F
00
07
17
FE
12
1A
F5
F7
F8
0B
E7
20
FB
EA
1A
03
FF
FD
24
F5
FF
EB
F5
D9
12
E8
F7
EF
0E
FF
FB
10
1C
23
F0
F1
1A
0D
1E
FF
ED
0D
F3
0F
FD
0B
FE
0D
06
0F
0A
0B
01
0B
05
15
0C
02
09
FD
F8
FA
00
08
FF
0D
08
F9
08
0C
08
F4
F1
0A
06
E9
02
09
F2
11
F1
F2
F8
0C
03
11
F7
F4
EB
FB
13
08
FD
08
0A
03
02
F1
08
EF
04
FE
FB
E7
FF
0E
16
FA
F6
FF
FA
00
F4
FF
F7
00
F9
FB
F7
01
E0
F6
EC
E7
F8
0D
FD
F4
0D
F8
F9
07
F9
FE
F8
FF
ED
F9
04
0B
01
0E
FC
0B
EE
00
02
F0
10
13
FB
EE
12
15
06
01
0C
F7
15
F9
F9
FE
0C
05
0E
F4
F3
F4
EB
F5
F3
F7
09
01
15
0E
FE
FA
F0
04
F3
1A
17
EC
FA
F2
F6
F7
FC
00
F7
0A
FC
06
12
07
F7
13
FC
FB
FD
12
F4
00
FD
0B
09
FB
00
F6
04
03
12
0E
ED
09
F0
0A
0E
0D
06
F3
0D
FD
F8
F5
F0
FF
0B
0C
0B
F2
0C
F2
FD
F4
FC
09
FE
01
F7
F0
F4
F5
08
06
04
FC
F9
FA
06
FD
06
FB
03
F9
0B
0E
F6
EF
F7
FB
03
F4
04
F7
FA
02
F3
FC
FA
F4
FC
FD
0B
ED
01
FF
FA
F8
00
FB
07
FB
F8
FD
09
F5
01
06
F8
01
0B
04
04
FD
05
03
01
FA
F6
02
FF
FB
0A
05
FA
FC
05
F5
0A
09
02
F9
F3
02
0A
FF
FA
07
03
FE
F4
02
01
00
F4
03
FB
FF
F6
F9
FF
FF
FE
FF
F8
03
FC
0A
02
04
FA
01
06
00
F9
FF
FC
F5
0A
FB
03
F5
0D
F6
04
FB
F8
FF
FB
F6
09
08
F6
F6
FD
F5
01
FA
10
07
F8
08
08
0D
FE
FE
F8
FC
08
03
F5
07
FE
F5
04
07
FD
08
F8
06
0A
F9
02
F9
FA
08
05
F9
0B
F3
08
F3
FF
F3
02
F3
FA
FB
01
01
FB
02
FE
07
FC
F9
02
EF
FD
07
02
0D
09
FF
F9
0B
F9
1D
D5
ED
01
F9
E5
09
16
23
E7
EF
01
0F
E3
E2
05
ED
E2
05
05
F2
EC
DC
EF
0E
DB
09
F3
02
E6
F2
05
F4
F0
E4
D9
2F
2E
E4
1F
0E
0D
F4
00
20
11
12
E8
EE
FF
FF
FA
EB
E7
FD
FC
11
F6
13
E7
EB
F0
EF
0A
25
03
12
0A
19
E5
18
00
00
FD
F1
FE
36
E9
02
2D
FA
E1
08
10
00
DF
E3
F9
05
DE
E6
0B
DC
FB
01
1D
00
09
1F
17
24
08
21
E9
17
1F
0F
29
0B
FD
EF
17
02
13
F6
F2
E3
13
FE
FD
09
02
03
DE
11
1C
CE
20
EC
16
18
FF
20
DF
E7
F6
E0
E7
12
00
11
02
10
0A
E8
E9
01
0F
1B
0F
08
05
2C
F4
F2
0A
03
2D
E1
F8
17
F0
22
E8
07
07
07
E3
00
FE
03
08
1A
1E
1A
F6
E5
07
1F
E5
09
E9
EB
17
3B
F0
17
1E
1A
0E
09
FB
F6
EF
E6
F6
10
02
08
F2
15
FF
00
04
07
17
16
00
EF
08
E8
00
24
1D
0E
E6
EB
F5
EE
07
06
0B
E4
0F
F4
EE
D6
EE
EF
E4
0B
04
0C
F3
10
E9
03
ED
F8
F3
E5
03
E2
FB
08
0F
05
E3
E1
EE
09
E6
0F
0F
0A
12
D7
13
FF
F1
FA
F5
E9
0D
FD
DE
FB
08
F3
0C
19
FD
08
16
1B
EB
F7
13
03
F3
08
D6
0B
04
FC
F8
0A
07
E9
06
0A
14
0B
D9
07
F6
E6
35
1F
F8
E9
F3
F0
09
1C
08
E9
FA
13
EE
EB
01
F2
F6
E3
1E
02
F6
F7
04
F7
0E
00
ED
1C
F5
14
04
0B
E5
FA
ED
00
F2
F3
FE
FF
D5
EB
02
0F
FA
10
F5
25
1B
09
0B
35
F2
D6
06
F3
FD
E0
0E
1D
08
12
0B
FA
EC
F9
0E
F1
12
13
EE
F7
0F
0B
FD
21
FB
08
15
FF
38
06
00
FF
FC
01
FC
FB
01
FA
FB
F7
03
0A
FA
03
0B
02
02
FC
07
01
F7
F7
FF
FD
FF
02
0C
05
06
FE
F2
FC
03
F6
FB
09
02
02
FB
F9
F7
08
FC
00
01
06
FF
08
06
01
08
07
08
04
FF
07
01
01
FF
00
02
FE
01
01
03
F9
04
04
FF
0C
06
01
07
FB
0C
08
04
03
03
09
04
FD
F8
11
00
F9
F3
FD
00
06
05
00
09
FF
04
02
06
0C
02
04
06
FE
09
08
03
FB
08
04
05
FC
FE
FB
FC
00
FC
FD
FD
07
01
02
05
0A
02
07
02
07
06
07
F9
F7
F7
0A
0C
0A
FF
01
FB
05
07
02
00
03
FF
FC
00
07
03
05
FB
F6
FD
FD
F5
01
FB
FF
04
08
FD
F5
F9
FD
06
F9
00
F8
0A
05
04
03
03
05
FA
00
01
02
06
02
FA
00
00
FD
FA
FD
03
FF
FA
07
08
07
04
F5
01
02
06
05
FF
06
02
03
02
FF
0A
FE
F8
0A
07
07
04
00
F7
FF
04
FF
09
F8
03
FE
FE
08
07
FA
03
F7
00
06
09
0B
FA
00
02
01
F9
06
07
0A
05
08
04
FF
02
F8
FD
04
00
05
01
04
F9
FF
02
06
02
FF
FD
FB
FD
FD
F9
0B
09
FB
01
07
FB
07
F7
05
FC
F9
F3
FD
FE
F6
FA
F8
07
FF
00
05
09
06
07
01
00
08
FF
03
01
09
07
FF
07
02
04
08
0A
01
F9
F5
FC
FB
06
FA
F2
00
04
FF
FA
F7
03
06
0A
06
07
FB
07
F8
05
FA
FC
F9
F7
FD
FB
09
02
03
0B
F5
FA
FC
02
F3
F7
FE
FF
FE
FD
FC
04
06
08
06
FA
08
07
FE
07
00
05
01
FF
F9
FF
FA
04
02
FC
FA
05
07
0A
FA
FD
FE
FA
FC
FD
00
FF
08
FE
06
FA
08
0A
07
05
FA
F9
FE
02
03
01
02
0D
F6
FE
E5
11
0A
00
10
E8
F9
ED
F1
F4
18
F4
07
11
0C
11
ED
F8
20
0F
14
00
EE
18
13
11
F8
FA
E9
F9
20
F7
FE
FE
0A
FD
F2
10
FC
F3
F1
03
F4
09
FA
F7
1F
EE
F3
FE
0D
F7
08
F8
0A
0C
0F
01
F8
EE
F0
02
02
09
11
E2
F9
11
00
FF
FA
13
DD
F1
16
0E
D1
02
02
18
13
12
F9
F2
F6
08
FF
FB
1A
EA
05
09
01
F6
F0
14
FD
05
FE
F7
08
F7
ED
F8
E2
FE
00
E3
13
E5
0B
14
01
07
15
DB
FE
0C
14
07
21
F7
0D
05
F9
13
0C
DF
07
01
18
E7
09
24
FA
FF
DF
FD
F8
D4
0C
20
27
1A
FC
F0
0F
0D
E3
E6
E6
F5
12
E4
05
00
EA
DC
0D
FB
EB
08
DE
F8
F7
F7
E4
EE
19
03
1D
0F
F8
0C
E9
EB
1E
0B
01
E5
F5
11
19
F3
0D
F8
02
E7
D7
01
F7
05
F5
EF
FE
09
0B
02
F3
FC
F2
EE
F4
E9
F4
FF
0D
EB
06
F9
07
05
FC
E8
0E
0D
01
01
F8
05
F4
EB
06
0C
05
F7
F8
FA
ED
F7
E7
FB
08
ED
F2
FE
0A
0C
03
0A
0B
0D
F0
F6
08
FE
F4
0A
FB
06
0F
0D
03
FB
FD
F9
01
12
EC
FF
F7
0C
F9
07
F0
08
0A
F5
07
EC
0C
0C
10
F9
03
FB
F0
02
F3
03
0E
FD
F7
FE
01
F7
F7
0C
F4
0B
08
01
FE
FD
FB
06
E7
0C
F5
EF
FD
F3
F2
FF
0D
FF
01
EF
FA
09
0D
FE
EB
0B
F6
F3
09
FD
F5
01
01
13
0B
01
0A
F2
EF
FF
FF
0C
04
02
FD
EF
FD
07
ED
FF
FA
0E
F0
F6
EC
FE
F0
F0
00
FD
FF
02
F3
F2
00
10
FE
0D
0F
0D
0C
0C
06
0F
05
E9
03
0E
F4
0C
F8
EF
0E
F0
FD
08
0A
F4
F7
0F
FA
0B
01
DB
D3
2F
06
D9
14
06
1E
FC
E2
01
1A
16
0A
12
11
FC
02
FF
13
10
1A
10
0E
DE
F2
13
13
00
F6
23
04
01
14
03
11
FE
23
0A
F8
19
F2
FB
0B
FB
E4
D7
0D
FE
ED
FA
F5
10
ED
F8
04
1B
F2
0B
CF
15
16
05
E0
D9
F7
03
03
F5
18
EB
0E
E4
D1
F5
01
CC
FD
E9
EE
24
DC
D3
1E
E2
00
F9
0D
1D
07
F3
DE
E6
02
E2
FD
16
DC
08
EE
0C
FB
0E
0D
EF
12
FC
01
F9
FB
04
00
EA
29
EF
02
F5
E5
07
10
0D
1B
09
11
F4
0F
F9
27
F0
FF
F7
01
F3
E0
0C
EE
EE
F1
FC
03
10
FA
19
0B
EC
E2
E2
FD
FD
FE
11
20
F4
DD
F6
FD
17
E0
07
DF
18
11
FD
0F
EC
F7
0D
F4
0F
05
04
12
02
E8
05
07
13
08
13
14
03
E8
02
00
02
F1
E5
13
F3
0A
15
F5
03
0A
08
00
03
E4
09
EF
F4
ED
0E
09
0A
06
F0
F4
EB
09
EC
02
E3
01
F3
04
00
01
F1
F3
09
1D
01
03
0A
10
EC
F4
F9
F7
F3
0A
F1
0C
04
09
10
00
FB
0F
13
10
E4
0D
ED
0D
F7
F7
08
EF
0E
14
04
D8
F2
EC
DF
03
04
D8
05
FF
ED
02
0F
FA
10
FB
DF
FD
E6
FC
11
E8
08
E6
F0
04
10
F9
E9
FD
E8
19
20
EB
08
0D
F3
04
F9
EB
EF
F5
FB
02
1C
04
F7
E1
05
0D
FA
17
18
0D
D8
F4
0B
F6
F3
F7
F6
FD
EB
F0
07
11
19
11
E1
F4
F1
10
17
12
15
F4
1C
F7
E4
07
16
22
DB
11
F0
07
E9
02
04
03
0B
EE
F3
00
EF
EB
FC
08
03
0C
0A
0A
FF
10
F3
ED
06
ED
0F
09
13
09
02
0D
0B
EA
08
07
16
21
E6
19
FD
F6
E3
0F
12
10
0C
EF
E3
F4
00
F7
F5
05
01
0C
FB
FA
03
03
02
00
05
04
02
08
0B
08
04
0D
00
FB
FE
FE
04
00
FB
05
06
08
03
08
06
03
03
01
01
F8
FE
FB
F9
FD
01
FE
0E
01
04
FF
0D
FD
01
FA
07
F7
05
07
04
FD
FC
F9
FD
FF
01
0D
08
FE
05
F8
F9
FE
08
06
00
F8
00
07
F7
FA
FB
01
00
FC
03
01
FE
FD
F9
01
06
FD
00
0B
05
08
07
00
0D
FC
07
01
FD
09
0D
09
04
05
01
05
F9
F5
F7
FB
04
05
04
06
FD
FD
09
03
02
05
FB
FA
05
FC
01
08
07
08
04
F8
01
02
FA
F9
F9
07
FD
FC
FA
00
0E
FE
FC
F4
06
05
02
05
00
FC
FC
07
11
02
02
0B
FE
F9
FA
F8
02
F5
00
FB
FE
0A
07
FE
08
FD
02
F8
01
F8
04
01
00
FB
08
0A
08
F8
F7
F9
04
06
02
F9
FD
F9
EF
E3
0B
F0
05
13
10
CE
EB
DF
FA
0D
01
1E
16
F2
07
0A
0C
07
17
D9
FA
F1
06
EB
F2
EE
FB
EB
EC
0D
0E
05
11
16
FE
12
08
F9
1E
0B
F1
14
0A
07
F1
F5
EB
F9
F1
04
07
03
DF
F6
01
08
FE
0F
06
08
E7
0D
F6
EA
F9
DD
FC
04
07
07
F2
00
11
E7
FE
EF
EE
EF
19
E8
E4
05
1C
EB
0F
F7
F3
09
11
09
FC
F5
F3
E1
03
09
04
FF
0D
09
11
19
EF
10
00
EA
08
DB
E5
E6
F2
0F
EF
08
F6
F1
E4
11
E5
DF
EB
EF
E7
0D
14
F6
11
03
F3
12
18
23
EA
0C
DC
EF
FF
EF
E8
F7
0F
EF
33
FF
0E
10
16
22
F7
17
02
EF
EE
F9
08
17
0C
15
E7
DF
04
F0
E9
E7
09
E9
FE
14
EF
EF
06
08
FC
F6
EE
FA
08
04
F2
EE
16
E4
F3
22
16
03
0E
07
00
FD
