33
2E
F5
38
F3
0B
DD
19
22
E3
27
06
24
09
4C
DF
7F
1A
B3
27
A6
F7
E6
33
D8
EF
E7
CC
1B
80
7F
80
7F
1A
99
30
19
36
09
E8
10
EA
12
20
17
F8
1A
09
15
CD
AE
E5
C6
4F
1D
29
3B
06
7F
80
02
80
2E
E7
2E
EB
70
B9
BC
B8
40
16
44
CB
BD
CA
D3
3D
36
71
B3
9B
37
BD
7F
D3
6C
80
8A
3B
1A
97
7F
7F
80
80
7F
95
F1
D7
EB
05
F3
DC
02
DB
D7
E2
D5
E3
3C
0E
06
E1
EF
EF
FD
E0
EB
EF
03
EF
F5
DF
E8
ED
C0
80
7F
E2
7F
3B
80
32
EF
ED
CB
B8
15
F1
58
80
7F
80
CA
36
7F
5F
6C
A0
1D
CB
EC
A3
3F
C9
1E
11
13
E6
49
36
16
80
71
DE
8B
7F
03
D1
D8
F9
20
F1
DB
AC
80
4D
7F
80
38
6C
12
D9
3B
40
2C
F0
E3
07
EF
D6
5A
5E
FC
DF
08
F1
46
51
80
91
7F
1B
03
DB
E2
C9
E7
0B
58
3A
88
A9
EC
7F
18
EB
28
DD
BF
43
C4
D6
