E5
E6
0A
11
C7
CE
E1
06
F0
FF
14
E4
07
CE
11
19
F3
1C
13
16
0C
13
15
D0
FA
FD
13
03
13
17
22
11
07
E3
12
D6
12
07
F3
16
09
14
FE
19
17
13
0A
FE
EB
01
17
F9
1A
D6
05
CD
10
E4
FF
E0
F3
14
DC
15
DC
DA
BE
10
10
EF
FB
D4
DC
1B
16
CB
1C
D5
18
16
02
D5
DC
CE
1C
0F
06
10
E3
1F
19
18
1D
08
F9
18
05
CC
F8
F2
CA
D1
1B
0F
15
E4
E3
17
1E
FD
10
BC
D4
C7
F6
1A
1E
08
20
0C
01
12
15
0C
17
D3
16
15
13
19
18
EB
19
22
FA
1B
10
DD
D0
1D
CB
15
D4
F5
DF
E3
19
0F
1A
C9
E1
23
10
CF
1C
D1
12
CC
0C
03
E0
1F
E1
FD
1E
D8
0E
1D
DE
04
03
DD
1B
EB
CC
09
F3
18
FD
0C
F3
21
1D
1B
DB
F8
E5
08
1A
15
F2
E9
23
22
25
C2
24
E8
1E
D5
BE
1D
E2
21
DF
0E
E9
DD
25
EF
19
DF
C8
1C
23
E2
B7
F5
C4
FC
C8
E7
F9
AF
BF
13
22
F0
0B
10
D8
CA
CE
BB
26
EA
D4
1C
04
1F
28
1C
29
B9
DA
06
E3
D3
21
17
BC
26
E3
20
E3
DD
E2
DC
F1
F8
0F
26
D9
24
2E
F5
1D
F1
1B
24
E7
CD
E5
24
CE
28
CE
D9
C6
26
23
11
DF
EC
D6
27
D5
07
2D
09
D0
38
F4
27
DE
DB
F4
2B
D5
CA
CC
BD
C8
05
19
DB
E1
25
D9
E1
E1
28
C9
D7
25
E1
D5
DC
35
D7
