memory_initialization_radix=16;
memory_initialization_vector=
4E,49,2E,4C,5C,80,7D,7F,69,7F,7F,46,E8,C6,44,2A,
49,91,BF,DF,06,67,24,D8,71,2A,42,4B,0F,BA,F8,43,
81,45,AE,2C,FF,55,96,7F,E6,7F,1E,51,42,67,15,44,
5B,17,54,53,1D,01,FB,95,D7,80,F9,00,26,ED,AE,2E,
7F,D1,FE,37,46,33,90,0F,10,F8,C8,13,6D,56,9F,69,
21,49,45,33,04,EC,F0,C2,68,7F,44,B4,45,F2,7F,7F,
0B,3E,54,35,02,80,6A,27,3C,A6,14,55,3E,1A,7F,25,
1E,DC,2B,7F,04,4B,D1,27,C8,E5,2F,52,27,48,D5,7F;
